#include "magic_wand_model_data.h"

// We need to keep the data array aligned on some architectures.
#ifdef __has_attribute
#define HAVE_ATTRIBUTE(x) __has_attribute(x)
#else
#define HAVE_ATTRIBUTE(x) 0
#endif
#if HAVE_ATTRIBUTE(aligned) || (defined(__GNUC__) && !defined(__clang__))
#define DATA_ALIGN_ATTRIBUTE __attribute__((aligned(4)))
#else
#define DATA_ALIGN_ATTRIBUTE
#endif

const unsigned char g_magic_wand_model_data[] DATA_ALIGN_ATTRIBUTE = {
  // Paste the data of the char array in `src/model.cc` here
    0x1c, 0x00, 0x00, 0x00, 0x54, 0x46, 0x4c, 0x33, 0x14, 0x00, 0x20, 0x00,
  0x04, 0x00, 0x08, 0x00, 0x0c, 0x00, 0x10, 0x00, 0x14, 0x00, 0x00, 0x00,
  0x18, 0x00, 0x1c, 0x00, 0x14, 0x00, 0x00, 0x00, 0x03, 0x00, 0x00, 0x00,
  0x18, 0x00, 0x00, 0x00, 0x2c, 0x00, 0x00, 0x00, 0xd8, 0x00, 0x00, 0x00,
  0x2c, 0x00, 0x00, 0x00, 0x80, 0x00, 0x00, 0x00, 0x78, 0x00, 0x00, 0x00,
  0x05, 0x00, 0x00, 0x00, 0x28, 0x07, 0x00, 0x00, 0x44, 0x06, 0x00, 0x00,
  0xbc, 0x03, 0x00, 0x00, 0xf8, 0x02, 0x00, 0x00, 0xac, 0x01, 0x00, 0x00,
  0x01, 0x00, 0x00, 0x00, 0xd0, 0x00, 0x00, 0x00, 0x14, 0x00, 0x00, 0x00,
  0xdc, 0x32, 0x00, 0x00, 0xd8, 0x32, 0x00, 0x00, 0xd0, 0x31, 0x00, 0x00,
  0x1c, 0x31, 0x00, 0x00, 0x74, 0x30, 0x00, 0x00, 0xfc, 0x2f, 0x00, 0x00,
  0x90, 0x2f, 0x00, 0x00, 0x40, 0x13, 0x00, 0x00, 0xec, 0x11, 0x00, 0x00,
  0x10, 0x10, 0x00, 0x00, 0xb4, 0x07, 0x00, 0x00, 0xb0, 0x32, 0x00, 0x00,
  0xac, 0x32, 0x00, 0x00, 0xa8, 0x32, 0x00, 0x00, 0xa4, 0x32, 0x00, 0x00,
  0xa0, 0x32, 0x00, 0x00, 0x9c, 0x32, 0x00, 0x00, 0x98, 0x32, 0x00, 0x00,
  0x94, 0x32, 0x00, 0x00, 0x3c, 0x00, 0x00, 0x00, 0x00, 0x00, 0x00, 0x00,
  0x01, 0x00, 0x00, 0x00, 0x0c, 0x00, 0x00, 0x00, 0x08, 0x00, 0x0c, 0x00,
  0x04, 0x00, 0x08, 0x00, 0x08, 0x00, 0x00, 0x00, 0x08, 0x00, 0x00, 0x00,
  0x13, 0x00, 0x00, 0x00, 0x13, 0x00, 0x00, 0x00, 0x6d, 0x69, 0x6e, 0x5f,
  0x72, 0x75, 0x6e, 0x74, 0x69, 0x6d, 0x65, 0x5f, 0x76, 0x65, 0x72, 0x73,
  0x69, 0x6f, 0x6e, 0x00, 0xb6, 0xce, 0xff, 0xff, 0x04, 0x00, 0x00, 0x00,
  0x10, 0x00, 0x00, 0x00, 0x31, 0x2e, 0x35, 0x2e, 0x30, 0x00, 0x00, 0x00,
  0x00, 0x00, 0x00, 0x00, 0x00, 0x00, 0x00, 0x00, 0x0f, 0x00, 0x00, 0x00,
  0x4d, 0x4c, 0x49, 0x52, 0x20, 0x43, 0x6f, 0x6e, 0x76, 0x65, 0x72, 0x74,
  0x65, 0x64, 0x2e, 0x00, 0x00, 0x00, 0x0e, 0x00, 0x18, 0x00, 0x04, 0x00,
  0x08, 0x00, 0x0c, 0x00, 0x10, 0x00, 0x14, 0x00, 0x0e, 0x00, 0x00, 0x00,
  0x14, 0x00, 0x00, 0x00, 0x5c, 0x00, 0x00, 0x00, 0x60, 0x00, 0x00, 0x00,
  0x64, 0x00, 0x00, 0x00, 0x84, 0x00, 0x00, 0x00, 0x12, 0x00, 0x00, 0x00,
  0x9c, 0x31, 0x00, 0x00, 0x2c, 0x31, 0x00, 0x00, 0x88, 0x30, 0x00, 0x00,
  0xe0, 0x2f, 0x00, 0x00, 0x38, 0x2f, 0x00, 0x00, 0xd4, 0x2e, 0x00, 0x00,
  0x6c, 0x2e, 0x00, 0x00, 0x18, 0x12, 0x00, 0x00, 0xbc, 0x10, 0x00, 0x00,
  0xe0, 0x0e, 0x00, 0x00, 0x0c, 0x06, 0x00, 0x00, 0x28, 0x05, 0x00, 0x00,
  0xe8, 0x03, 0x00, 0x00, 0x3c, 0x03, 0x00, 0x00, 0x98, 0x02, 0x00, 0x00,
  0xd4, 0x01, 0x00, 0x00, 0x10, 0x01, 0x00, 0x00, 0x84, 0x00, 0x00, 0x00,
  0x01, 0x00, 0x00, 0x00, 0x00, 0x00, 0x00, 0x00, 0x01, 0x00, 0x00, 0x00,
  0x11, 0x00, 0x00, 0x00, 0x08, 0x00, 0x00, 0x00, 0x74, 0x05, 0x00, 0x00,
  0x94, 0x04, 0x00, 0x00, 0x78, 0x03, 0x00, 0x00, 0xbc, 0x02, 0x00, 0x00,
  0x30, 0x02, 0x00, 0x00, 0x50, 0x01, 0x00, 0x00, 0xa8, 0x00, 0x00, 0x00,
  0x10, 0x00, 0x00, 0x00, 0x04, 0x00, 0x00, 0x00, 0x6d, 0x61, 0x69, 0x6e,
  0x00, 0x00, 0x00, 0x00, 0x7a, 0xff, 0xff, 0xff, 0x00, 0x00, 0x00, 0x09,
  0x04, 0x00, 0x00, 0x00, 0x1c, 0x00, 0x00, 0x00, 0x10, 0x00, 0x00, 0x00,
  0x04, 0x00, 0x00, 0x00, 0xb2, 0xcf, 0xff, 0xff, 0x00, 0x00, 0x80, 0x3f,
  0x01, 0x00, 0x00, 0x00, 0x11, 0x00, 0x00, 0x00, 0x01, 0x00, 0x00, 0x00,
  0x10, 0x00, 0x00, 0x00, 0xa0, 0xfa, 0xff, 0xff, 0x19, 0x00, 0x00, 0x00,
  0x00, 0x00, 0x00, 0x19, 0x01, 0x00, 0x00, 0x00, 0x40, 0xcf, 0xff, 0xff,
  0x14, 0x00, 0x00, 0x00, 0x12, 0x00, 0x00, 0x00, 0x18, 0x00, 0x00, 0x00,
  0x30, 0x00, 0x00, 0x00, 0x20, 0x00, 0x00, 0x00, 0x02, 0x00, 0x00, 0x00,
  0x01, 0x00, 0x00, 0x00, 0x04, 0x00, 0x00, 0x00, 0x08, 0x00, 0x00, 0x00,
  0x49, 0x64, 0x65, 0x6e, 0x74, 0x69, 0x74, 0x79, 0x00, 0x00, 0x00, 0x00,
  0x02, 0x00, 0x00, 0x00, 0xff, 0xff, 0xff, 0xff, 0x04, 0x00, 0x00, 0x00,
  0x24, 0xd0, 0xff, 0xff, 0x00, 0x00, 0x0e, 0x00, 0x18, 0x00, 0x08, 0x00,
  0x0c, 0x00, 0x10, 0x00, 0x07, 0x00, 0x14, 0x00, 0x0e, 0x00, 0x00, 0x00,
  0x00, 0x00, 0x00, 0x08, 0x03, 0x00, 0x00, 0x00, 0x18, 0x00, 0x00, 0x00,
  0x0c, 0x00, 0x00, 0x00, 0x04, 0x00, 0x00, 0x00, 0x40, 0xcf, 0xff, 0xff,
  0x01, 0x00, 0x00, 0x00, 0x10, 0x00, 0x00, 0x00, 0x03, 0x00, 0x00, 0x00,
  0x0f, 0x00, 0x00, 0x00, 0x07, 0x00, 0x00, 0x00, 0x04, 0x00, 0x00, 0x00,
  0xc8, 0xcf, 0xff, 0xff, 0x14, 0x00, 0x00, 0x00, 0x11, 0x00, 0x00, 0x00,
  0x18, 0x00, 0x00, 0x00, 0x5c, 0x00, 0x00, 0x00, 0x4c, 0x00, 0x00, 0x00,
  0x02, 0x00, 0x00, 0x00, 0x01, 0x00, 0x00, 0x00, 0x04, 0x00, 0x00, 0x00,
  0x34, 0x00, 0x00, 0x00, 0x73, 0x65, 0x71, 0x75, 0x65, 0x6e, 0x74, 0x69,
  0x61, 0x6c, 0x2f, 0x64, 0x65, 0x6e, 0x73, 0x65, 0x5f, 0x31, 0x2f, 0x4d,
  0x61, 0x74, 0x4d, 0x75, 0x6c, 0x3b, 0x73, 0x65, 0x71, 0x75, 0x65, 0x6e,
  0x74, 0x69, 0x61, 0x6c, 0x2f, 0x64, 0x65, 0x6e, 0x73, 0x65, 0x5f, 0x31,
  0x2f, 0x42, 0x69, 0x61, 0x73, 0x41, 0x64, 0x64, 0x00, 0x00, 0x00, 0x00,
  0x02, 0x00, 0x00, 0x00, 0xff, 0xff, 0xff, 0xff, 0x04, 0x00, 0x00, 0x00,
  0xc8, 0xcf, 0xff, 0xff, 0xda, 0xfc, 0xff, 0xff, 0x00, 0x00, 0x00, 0x08,
  0x03, 0x00, 0x00, 0x00, 0x24, 0x00, 0x00, 0x00, 0x18, 0x00, 0x00, 0x00,
  0x0c, 0x00, 0x00, 0x00, 0x00, 0x00, 0x06, 0x00, 0x08, 0x00, 0x07, 0x00,
  0x06, 0x00, 0x00, 0x00, 0x00, 0x00, 0x00, 0x01, 0x01, 0x00, 0x00, 0x00,
  0x0f, 0x00, 0x00, 0x00, 0x03, 0x00, 0x00, 0x00, 0x0e, 0x00, 0x00, 0x00,
  0x06, 0x00, 0x00, 0x00, 0x03, 0x00, 0x00, 0x00, 0xe8, 0xfb, 0xff, 0xff,
  0x09, 0x00, 0x00, 0x00, 0x00, 0x00, 0x00, 0x09, 0x01, 0x00, 0x00, 0x00,
  0x88, 0xd0, 0xff, 0xff, 0x14, 0x00, 0x00, 0x00, 0x10, 0x00, 0x00, 0x00,
  0x18, 0x00, 0x00, 0x00, 0x6c, 0x00, 0x00, 0x00, 0x5c, 0x00, 0x00, 0x00,
  0x02, 0x00, 0x00, 0x00, 0x01, 0x00, 0x00, 0x00, 0x10, 0x00, 0x00, 0x00,
  0x46, 0x00, 0x00, 0x00, 0x73, 0x65, 0x71, 0x75, 0x65, 0x6e, 0x74, 0x69,
  0x61, 0x6c, 0x2f, 0x64, 0x65, 0x6e, 0x73, 0x65, 0x2f, 0x4d, 0x61, 0x74,
  0x4d, 0x75, 0x6c, 0x3b, 0x73, 0x65, 0x71, 0x75, 0x65, 0x6e, 0x74, 0x69,
  0x61, 0x6c, 0x2f, 0x64, 0x65, 0x6e, 0x73, 0x65, 0x2f, 0x52, 0x65, 0x6c,
  0x75, 0x3b, 0x73, 0x65, 0x71, 0x75, 0x65, 0x6e, 0x74, 0x69, 0x61, 0x6c,
  0x2f, 0x64, 0x65, 0x6e, 0x73, 0x65, 0x2f, 0x42, 0x69, 0x61, 0x73, 0x41,
  0x64, 0x64, 0x00, 0x00, 0x02, 0x00, 0x00, 0x00, 0xff, 0xff, 0xff, 0xff,
  0x10, 0x00, 0x00, 0x00, 0xa8, 0xd1, 0xff, 0xff, 0x00, 0x00, 0x0a, 0x00,
  0x10, 0x00, 0x04, 0x00, 0x08, 0x00, 0x0c, 0x00, 0x0a, 0x00, 0x00, 0x00,
  0x02, 0x00, 0x00, 0x00, 0x10, 0x00, 0x00, 0x00, 0x04, 0x00, 0x00, 0x00,
  0x01, 0x00, 0x00, 0x00, 0x0e, 0x00, 0x00, 0x00, 0x02, 0x00, 0x00, 0x00,
  0x0d, 0x00, 0x00, 0x00, 0x05, 0x00, 0x00, 0x00, 0xa8, 0xfc, 0xff, 0xff,
  0x16, 0x00, 0x00, 0x00, 0x00, 0x00, 0x00, 0x16, 0x01, 0x00, 0x00, 0x00,
  0x48, 0xd1, 0xff, 0xff, 0x14, 0x00, 0x00, 0x00, 0x0f, 0x00, 0x00, 0x00,
  0x18, 0x00, 0x00, 0x00, 0x40, 0x00, 0x00, 0x00, 0x30, 0x00, 0x00, 0x00,
  0x02, 0x00, 0x00, 0x00, 0x01, 0x00, 0x00, 0x00, 0x70, 0x00, 0x00, 0x00,
  0x1a, 0x00, 0x00, 0x00, 0x73, 0x65, 0x71, 0x75, 0x65, 0x6e, 0x74, 0x69,
  0x61, 0x6c, 0x2f, 0x66, 0x6c, 0x61, 0x74, 0x74, 0x65, 0x6e, 0x2f, 0x52,
  0x65, 0x73, 0x68, 0x61, 0x70, 0x65, 0x00, 0x00, 0x02, 0x00, 0x00, 0x00,
  0xff, 0xff, 0xff, 0xff, 0x70, 0x00, 0x00, 0x00, 0x2c, 0xd1, 0xff, 0xff,
  0x3e, 0xfe, 0xff, 0xff, 0x00, 0x00, 0x00, 0x05, 0x01, 0x00, 0x00, 0x00,
  0x38, 0x00, 0x00, 0x00, 0x2c, 0x00, 0x00, 0x00, 0x14, 0x00, 0x00, 0x00,
  0x00, 0x00, 0x0e, 0x00, 0x14, 0x00, 0x00, 0x00, 0x10, 0x00, 0x0c, 0x00,
  0x08, 0x00, 0x04, 0x00, 0x0e, 0x00, 0x00, 0x00, 0x03, 0x00, 0x00, 0x00,
  0x01, 0x00, 0x00, 0x00, 0x03, 0x00, 0x00, 0x00, 0x01, 0x00, 0x00, 0x00,
  0x01, 0x00, 0x00, 0x00, 0x0d, 0x00, 0x00, 0x00, 0x01, 0x00, 0x00, 0x00,
  0x0c, 0x00, 0x00, 0x00, 0xe8, 0xd1, 0xff, 0xff, 0x14, 0x00, 0x00, 0x00,
  0x0e, 0x00, 0x00, 0x00, 0x20, 0x00, 0x00, 0x00, 0x58, 0x00, 0x00, 0x00,
  0x40, 0x00, 0x00, 0x00, 0x04, 0x00, 0x00, 0x00, 0x01, 0x00, 0x00, 0x00,
  0x07, 0x00, 0x00, 0x00, 0x01, 0x00, 0x00, 0x00, 0x10, 0x00, 0x00, 0x00,
  0x22, 0x00, 0x00, 0x00, 0x73, 0x65, 0x71, 0x75, 0x65, 0x6e, 0x74, 0x69,
  0x61, 0x6c, 0x2f, 0x6d, 0x61, 0x78, 0x5f, 0x70, 0x6f, 0x6f, 0x6c, 0x69,
  0x6e, 0x67, 0x32, 0x64, 0x5f, 0x31, 0x2f, 0x4d, 0x61, 0x78, 0x50, 0x6f,
  0x6f, 0x6c, 0x00, 0x00, 0x04, 0x00, 0x00, 0x00, 0xff, 0xff, 0xff, 0xff,
  0x07, 0x00, 0x00, 0x00, 0x01, 0x00, 0x00, 0x00, 0x10, 0x00, 0x00, 0x00,
  0xe4, 0xd1, 0xff, 0xff, 0x1a, 0xfe, 0xff, 0xff, 0x00, 0x00, 0x00, 0x01,
  0x24, 0x00, 0x00, 0x00, 0x18, 0x00, 0x00, 0x00, 0x04, 0x00, 0x00, 0x00,
  0x0c, 0xfe, 0xff, 0xff, 0x01, 0x00, 0x00, 0x00, 0x01, 0x00, 0x00, 0x00,
  0x00, 0x00, 0x00, 0x01, 0x01, 0x00, 0x00, 0x00, 0x0c, 0x00, 0x00, 0x00,
  0x03, 0x00, 0x00, 0x00, 0x0b, 0x00, 0x00, 0x00, 0x09, 0x00, 0x00, 0x00,
  0x02, 0x00, 0x00, 0x00, 0x90, 0xd2, 0xff, 0xff, 0x14, 0x00, 0x00, 0x00,
  0x0d, 0x00, 0x00, 0x00, 0x20, 0x00, 0x00, 0x00, 0xb8, 0x00, 0x00, 0x00,
  0xa0, 0x00, 0x00, 0x00, 0x04, 0x00, 0x00, 0x00, 0x01, 0x00, 0x00, 0x00,
  0x15, 0x00, 0x00, 0x00, 0x01, 0x00, 0x00, 0x00, 0x10, 0x00, 0x00, 0x00,
  0x83, 0x00, 0x00, 0x00, 0x73, 0x65, 0x71, 0x75, 0x65, 0x6e, 0x74, 0x69,
  0x61, 0x6c, 0x2f, 0x63, 0x6f, 0x6e, 0x76, 0x32, 0x64, 0x5f, 0x31, 0x2f,
  0x52, 0x65, 0x6c, 0x75, 0x3b, 0x73, 0x65, 0x71, 0x75, 0x65, 0x6e, 0x74,
  0x69, 0x61, 0x6c, 0x2f, 0x63, 0x6f, 0x6e, 0x76, 0x32, 0x64, 0x5f, 0x31,
  0x2f, 0x42, 0x69, 0x61, 0x73, 0x41, 0x64, 0x64, 0x3b, 0x73, 0x65, 0x71,
  0x75, 0x65, 0x6e, 0x74, 0x69, 0x61, 0x6c, 0x2f, 0x63, 0x6f, 0x6e, 0x76,
  0x32, 0x64, 0x5f, 0x31, 0x2f, 0x43, 0x6f, 0x6e, 0x76, 0x32, 0x44, 0x3b,
  0x73, 0x65, 0x71, 0x75, 0x65, 0x6e, 0x74, 0x69, 0x61, 0x6c, 0x2f, 0x63,
  0x6f, 0x6e, 0x76, 0x32, 0x64, 0x5f, 0x31, 0x2f, 0x42, 0x69, 0x61, 0x73,
  0x41, 0x64, 0x64, 0x2f, 0x52, 0x65, 0x61, 0x64, 0x56, 0x61, 0x72, 0x69,
  0x61, 0x62, 0x6c, 0x65, 0x4f, 0x70, 0x2f, 0x72, 0x65, 0x73, 0x6f, 0x75,
  0x72, 0x63, 0x65, 0x00, 0x04, 0x00, 0x00, 0x00, 0xff, 0xff, 0xff, 0xff,
  0x15, 0x00, 0x00, 0x00, 0x01, 0x00, 0x00, 0x00, 0x10, 0x00, 0x00, 0x00,
  0xfc, 0xd3, 0xff, 0xff, 0x00, 0x00, 0x0e, 0x00, 0x1a, 0x00, 0x08, 0x00,
  0x0c, 0x00, 0x10, 0x00, 0x07, 0x00, 0x14, 0x00, 0x0e, 0x00, 0x00, 0x00,
  0x00, 0x00, 0x00, 0x05, 0x01, 0x00, 0x00, 0x00, 0x3c, 0x00, 0x00, 0x00,
  0x30, 0x00, 0x00, 0x00, 0x14, 0x00, 0x00, 0x00, 0x00, 0x00, 0x0e, 0x00,
  0x18, 0x00, 0x17, 0x00, 0x10, 0x00, 0x0c, 0x00, 0x08, 0x00, 0x04, 0x00,
  0x0e, 0x00, 0x00, 0x00, 0x03, 0x00, 0x00, 0x00, 0x03, 0x00, 0x00, 0x00,
  0x03, 0x00, 0x00, 0x00, 0x03, 0x00, 0x00, 0x00, 0x00, 0x00, 0x00, 0x01,
  0x01, 0x00, 0x00, 0x00, 0x0b, 0x00, 0x00, 0x00, 0x01, 0x00, 0x00, 0x00,
  0x0a, 0x00, 0x00, 0x00, 0x2c, 0xff, 0xff, 0xff, 0x11, 0x00, 0x00, 0x00,
  0x00, 0x00, 0x00, 0x11, 0x01, 0x00, 0x00, 0x00, 0xcc, 0xd3, 0xff, 0xff,
  0x14, 0x00, 0x00, 0x00, 0x0c, 0x00, 0x00, 0x00, 0x20, 0x00, 0x00, 0x00,
  0x58, 0x00, 0x00, 0x00, 0x40, 0x00, 0x00, 0x00, 0x04, 0x00, 0x00, 0x00,
  0x01, 0x00, 0x00, 0x00, 0x15, 0x00, 0x00, 0x00, 0x01, 0x00, 0x00, 0x00,
  0x08, 0x00, 0x00, 0x00, 0x20, 0x00, 0x00, 0x00, 0x73, 0x65, 0x71, 0x75,
  0x65, 0x6e, 0x74, 0x69, 0x61, 0x6c, 0x2f, 0x6d, 0x61, 0x78, 0x5f, 0x70,
  0x6f, 0x6f, 0x6c, 0x69, 0x6e, 0x67, 0x32, 0x64, 0x2f, 0x4d, 0x61, 0x78,
  0x50, 0x6f, 0x6f, 0x6c, 0x00, 0x00, 0x00, 0x00, 0x04, 0x00, 0x00, 0x00,
  0xff, 0xff, 0xff, 0xff, 0x15, 0x00, 0x00, 0x00, 0x01, 0x00, 0x00, 0x00,
  0x08, 0x00, 0x00, 0x00, 0xd8, 0xd4, 0xff, 0xff, 0x00, 0x00, 0x0e, 0x00,
  0x14, 0x00, 0x00, 0x00, 0x08, 0x00, 0x0c, 0x00, 0x07, 0x00, 0x10, 0x00,
  0x0e, 0x00, 0x00, 0x00, 0x00, 0x00, 0x00, 0x01, 0x30, 0x00, 0x00, 0x00,
  0x24, 0x00, 0x00, 0x00, 0x10, 0x00, 0x00, 0x00, 0x0c, 0x00, 0x10, 0x00,
  0x00, 0x00, 0x04, 0x00, 0x08, 0x00, 0x0f, 0x00, 0x0c, 0x00, 0x00, 0x00,
  0x01, 0x00, 0x00, 0x00, 0x01, 0x00, 0x00, 0x00, 0x00, 0x00, 0x00, 0x01,
  0x01, 0x00, 0x00, 0x00, 0x0a, 0x00, 0x00, 0x00, 0x03, 0x00, 0x00, 0x00,
  0x00, 0x00, 0x00, 0x00, 0x08, 0x00, 0x00, 0x00, 0x01, 0x00, 0x00, 0x00,
  0x0c, 0x00, 0x10, 0x00, 0x0b, 0x00, 0x00, 0x00, 0x0c, 0x00, 0x04, 0x00,
  0x0c, 0x00, 0x00, 0x00, 0x03, 0x00, 0x00, 0x00, 0x00, 0x00, 0x00, 0x03,
  0x01, 0x00, 0x00, 0x00, 0xac, 0xd4, 0xff, 0xff, 0x14, 0x00, 0x00, 0x00,
  0x0b, 0x00, 0x00, 0x00, 0x20, 0x00, 0x00, 0x00, 0xb0, 0x00, 0x00, 0x00,
  0x98, 0x00, 0x00, 0x00, 0x04, 0x00, 0x00, 0x00, 0x01, 0x00, 0x00, 0x00,
  0x40, 0x00, 0x00, 0x00, 0x03, 0x00, 0x00, 0x00, 0x08, 0x00, 0x00, 0x00,
  0x7b, 0x00, 0x00, 0x00, 0x73, 0x65, 0x71, 0x75, 0x65, 0x6e, 0x74, 0x69,
  0x61, 0x6c, 0x2f, 0x63, 0x6f, 0x6e, 0x76, 0x32, 0x64, 0x2f, 0x52, 0x65,
  0x6c, 0x75, 0x3b, 0x73, 0x65, 0x71, 0x75, 0x65, 0x6e, 0x74, 0x69, 0x61,
  0x6c, 0x2f, 0x63, 0x6f, 0x6e, 0x76, 0x32, 0x64, 0x2f, 0x42, 0x69, 0x61,
  0x73, 0x41, 0x64, 0x64, 0x3b, 0x73, 0x65, 0x71, 0x75, 0x65, 0x6e, 0x74,
  0x69, 0x61, 0x6c, 0x2f, 0x63, 0x6f, 0x6e, 0x76, 0x32, 0x64, 0x2f, 0x43,
  0x6f, 0x6e, 0x76, 0x32, 0x44, 0x3b, 0x73, 0x65, 0x71, 0x75, 0x65, 0x6e,
  0x74, 0x69, 0x61, 0x6c, 0x2f, 0x63, 0x6f, 0x6e, 0x76, 0x32, 0x64, 0x2f,
  0x42, 0x69, 0x61, 0x73, 0x41, 0x64, 0x64, 0x2f, 0x52, 0x65, 0x61, 0x64,
  0x56, 0x61, 0x72, 0x69, 0x61, 0x62, 0x6c, 0x65, 0x4f, 0x70, 0x2f, 0x72,
  0x65, 0x73, 0x6f, 0x75, 0x72, 0x63, 0x65, 0x00, 0x04, 0x00, 0x00, 0x00,
  0xff, 0xff, 0xff, 0xff, 0x40, 0x00, 0x00, 0x00, 0x03, 0x00, 0x00, 0x00,
  0x08, 0x00, 0x00, 0x00, 0x00, 0xd5, 0xff, 0xff, 0x0a, 0xd6, 0xff, 0xff,
  0x04, 0x00, 0x00, 0x00, 0x00, 0x08, 0x00, 0x00, 0xb8, 0x6b, 0x0f, 0xbe,
  0xba, 0xf7, 0x96, 0x3d, 0xf0, 0x30, 0xd5, 0x3c, 0xcd, 0x42, 0x6e, 0xbe,
  0xc0, 0x26, 0xde, 0x3c, 0xbd, 0x74, 0x0e, 0x3e, 0xb1, 0xd6, 0x7d, 0xbd,
  0x40, 0x97, 0xc7, 0xbe, 0x77, 0x65, 0x5d, 0x3d, 0xf7, 0x59, 0x21, 0x3d,
  0x60, 0x9a, 0x46, 0x3e, 0xeb, 0xa6, 0x2a, 0xbe, 0x43, 0x90, 0x3b, 0xbd,
  0xf4, 0xfa, 0x5c, 0x3e, 0x85, 0x67, 0xae, 0xbd, 0x91, 0x8f, 0xbc, 0xbe,
  0x22, 0x6d, 0x60, 0xbd, 0xe8, 0xa3, 0x8d, 0x3c, 0xec, 0x42, 0x8c, 0xbe,
  0xe0, 0x19, 0xce, 0xbc, 0x2b, 0x0c, 0x42, 0xbe, 0x5a, 0x3e, 0x2c, 0x3e,
  0x8d, 0xfa, 0x59, 0xbe, 0x76, 0x8c, 0xc0, 0xbe, 0xe8, 0x3f, 0xa7, 0xbd,
  0xd5, 0x15, 0x54, 0xbe, 0x24, 0xc5, 0xc9, 0xbd, 0xf1, 0xcd, 0xa9, 0x3b,
  0xb7, 0xaa, 0x87, 0xbe, 0x45, 0x09, 0x66, 0x3d, 0x66, 0xa7, 0x27, 0x3d,
  0x4a, 0x60, 0x7b, 0xbe, 0x53, 0x9a, 0xb1, 0x3e, 0x47, 0x3e, 0xab, 0xbe,
  0xcb, 0xba, 0x21, 0xbe, 0x92, 0x1a, 0xf8, 0xbd, 0xdc, 0x30, 0x16, 0xbf,
  0x3a, 0x9e, 0xc1, 0x3d, 0x86, 0x08, 0x84, 0xbf, 0x13, 0x48, 0xcf, 0xbd,
  0x3e, 0xf0, 0x76, 0x3e, 0x57, 0x33, 0x3c, 0xbf, 0xe4, 0xe8, 0x35, 0x3e,
  0x17, 0x14, 0x81, 0xbe, 0xe1, 0xae, 0x5f, 0xbf, 0xa2, 0x7b, 0x92, 0xbe,
  0x50, 0xab, 0xe5, 0x3b, 0x55, 0xd0, 0xe4, 0x3e, 0x53, 0xed, 0x03, 0xbf,
  0xfc, 0x6c, 0x8a, 0x3e, 0xbd, 0xad, 0xa2, 0x3e, 0x23, 0x2c, 0x1c, 0x3e,
  0xa4, 0x76, 0x18, 0xbe, 0x15, 0x60, 0x8d, 0xbe, 0xfc, 0x52, 0xf1, 0x3d,
  0x7a, 0xfb, 0x66, 0x3a, 0x9f, 0xba, 0xb6, 0x3c, 0xfd, 0x0e, 0x96, 0x3e,
  0x75, 0xfb, 0xc4, 0xbe, 0xbd, 0x04, 0x4a, 0xbe, 0xdd, 0x89, 0xb6, 0x3d,
  0x6b, 0xc5, 0x2a, 0xbe, 0x7a, 0xed, 0x9a, 0x3e, 0x39, 0x40, 0xb0, 0xbe,
  0xbb, 0x13, 0xb2, 0x3e, 0x87, 0x32, 0x06, 0xbe, 0x70, 0x1b, 0x96, 0xbd,
  0x23, 0x96, 0xa9, 0xbd, 0x03, 0xed, 0xa1, 0xbe, 0x4f, 0x29, 0x90, 0xbe,
  0xff, 0x44, 0x54, 0xbe, 0x43, 0x07, 0xdd, 0xbd, 0x8c, 0xa8, 0x2d, 0x3e,
  0xb8, 0xe2, 0x42, 0x3e, 0xb9, 0xc6, 0x46, 0xbe, 0xbd, 0xa9, 0x06, 0x3e,
  0xc2, 0x85, 0x5e, 0xbe, 0x0c, 0x33, 0x10, 0x3d, 0xc0, 0x9d, 0x42, 0xbd,
  0x24, 0x5f, 0xaa, 0xbd, 0xec, 0x4a, 0x1e, 0xbe, 0x85, 0x84, 0x08, 0xbe,
  0x2b, 0xbe, 0x15, 0x3e, 0x22, 0x50, 0x05, 0x3e, 0x63, 0xc6, 0xa1, 0xbd,
  0x1a, 0xaf, 0x49, 0x3d, 0x74, 0x8d, 0x96, 0xbe, 0x7c, 0x9e, 0x05, 0xbe,
  0x7b, 0x60, 0x20, 0x3c, 0x25, 0x58, 0x53, 0xbe, 0xa5, 0x96, 0x13, 0xbe,
  0x52, 0x98, 0x37, 0x3e, 0x0c, 0xf2, 0x5c, 0xbe, 0x9a, 0x1c, 0x64, 0x3e,
  0xca, 0x40, 0x5b, 0xbe, 0x7b, 0x59, 0x38, 0xbe, 0xae, 0x9f, 0x0c, 0xbe,
  0x59, 0x38, 0x92, 0xbd, 0xf4, 0xfb, 0x33, 0x3e, 0x7e, 0xb8, 0x72, 0xbe,
  0x21, 0x37, 0x1a, 0xbd, 0x65, 0x8f, 0xa0, 0xbe, 0xd8, 0x4b, 0x9a, 0xbe,
  0x8e, 0xbf, 0x74, 0xbe, 0x0d, 0x98, 0x89, 0xbe, 0x12, 0xc6, 0x03, 0x3e,
  0x06, 0x36, 0x2e, 0xbe, 0x97, 0x72, 0x39, 0xbd, 0x11, 0x38, 0x3b, 0x3d,
  0x46, 0xc3, 0x9a, 0xbe, 0x29, 0xa0, 0x42, 0xbd, 0x7a, 0x6f, 0xc0, 0xbd,
  0x4f, 0xae, 0x2a, 0x3d, 0xb0, 0x79, 0x86, 0x3d, 0x5d, 0xb2, 0x39, 0x3d,
  0x75, 0x31, 0x38, 0xbe, 0xe5, 0xdc, 0xf5, 0xbd, 0xfe, 0xc6, 0x80, 0xbc,
  0x05, 0x3e, 0xd6, 0xbe, 0x49, 0x43, 0x66, 0xbe, 0xe6, 0x4a, 0x3c, 0xbe,
  0x3d, 0x01, 0x3d, 0x3c, 0xcf, 0xc7, 0xdd, 0x3d, 0x0b, 0x0a, 0xa2, 0x3d,
  0x08, 0xb3, 0xf4, 0x3d, 0xfb, 0xe2, 0xe4, 0xbd, 0xd5, 0x48, 0x96, 0xbd,
  0xcb, 0x09, 0x75, 0xbe, 0x1e, 0x64, 0x47, 0xbd, 0x95, 0xc6, 0x65, 0xbe,
  0xa7, 0x2f, 0x78, 0x3e, 0x90, 0x8f, 0xb0, 0xbc, 0xa3, 0x68, 0xdc, 0xbe,
  0x43, 0x85, 0x48, 0xbe, 0x83, 0x9c, 0x25, 0x3e, 0xb6, 0x3e, 0x2d, 0x3c,
  0xcf, 0xfb, 0x00, 0x3f, 0x87, 0xf6, 0xa2, 0xbe, 0x2f, 0xed, 0x41, 0x3d,
  0xc5, 0x77, 0xcb, 0xbd, 0x91, 0x9b, 0x23, 0xbf, 0x4f, 0xb0, 0x1a, 0xbe,
  0x6e, 0x1c, 0x7f, 0xbd, 0x92, 0xfd, 0x4a, 0x3e, 0xd2, 0x05, 0x28, 0xbe,
  0xed, 0x28, 0x23, 0x3e, 0x06, 0xb5, 0xbd, 0x3e, 0xd9, 0xee, 0xa2, 0xbc,
  0x79, 0x4b, 0x9e, 0xbe, 0x04, 0xf2, 0x69, 0xbe, 0xd3, 0x4b, 0x6d, 0xbd,
  0x13, 0x02, 0x35, 0x3e, 0x1b, 0x02, 0xf4, 0x3d, 0x4c, 0x84, 0xf1, 0x3e,
  0x6d, 0xbd, 0xab, 0xbd, 0x1a, 0x1e, 0xfe, 0x3c, 0xef, 0x7e, 0xe1, 0xbd,
  0x0a, 0xb9, 0x8a, 0xbe, 0xb1, 0x99, 0x46, 0x3e, 0x9c, 0x11, 0xc6, 0xbd,
  0x2b, 0x81, 0x18, 0xbf, 0xdf, 0xe2, 0x92, 0xbd, 0xe7, 0xa9, 0x50, 0xbe,
  0xae, 0x38, 0xfb, 0xbc, 0x85, 0xe0, 0x06, 0xbe, 0xab, 0xc2, 0x34, 0x3d,
  0x7a, 0xa1, 0x9e, 0xbe, 0xf3, 0x8e, 0x8b, 0xbe, 0x97, 0x77, 0xf9, 0xbe,
  0x07, 0x70, 0xec, 0xbd, 0xed, 0x3f, 0x6b, 0xbe, 0xb4, 0xd1, 0x77, 0xbd,
  0x36, 0x4a, 0x0f, 0xbe, 0x8f, 0xb9, 0xc6, 0x38, 0xae, 0x89, 0xdc, 0xbd,
  0x97, 0xbf, 0xa1, 0xbe, 0x45, 0x17, 0xc7, 0x3e, 0xa9, 0xed, 0x31, 0xbe,
  0x15, 0x03, 0x96, 0xbd, 0x1e, 0x43, 0x10, 0x3c, 0x27, 0x84, 0x3c, 0xbd,
  0x5b, 0x41, 0xbe, 0x3d, 0xce, 0x4b, 0x89, 0xbe, 0xa5, 0xf7, 0x53, 0xbd,
  0x96, 0xc7, 0x25, 0x3f, 0x97, 0x02, 0xc1, 0xbe, 0xcf, 0x7e, 0x42, 0x3d,
  0x7b, 0x0c, 0xc1, 0x3d, 0x99, 0x6b, 0x92, 0xbd, 0xbe, 0xb6, 0x13, 0x3d,
  0x06, 0x42, 0x99, 0xbd, 0xa2, 0xaf, 0xc4, 0x3e, 0x76, 0xd9, 0x54, 0xbe,
  0x40, 0x4e, 0x50, 0xbe, 0xde, 0x66, 0x0b, 0x3e, 0xe2, 0x16, 0xb2, 0x3c,
  0xc1, 0x71, 0xeb, 0xbe, 0x59, 0xa1, 0xea, 0xbc, 0xc1, 0x72, 0x4c, 0xbe,
  0x2f, 0xad, 0xa6, 0x3d, 0x32, 0xff, 0x36, 0x3f, 0x41, 0x0d, 0x53, 0xbe,
  0x4c, 0x6e, 0x0b, 0xbc, 0x63, 0x71, 0x1d, 0xbe, 0x7c, 0xcb, 0xfd, 0xbe,
  0x0f, 0x75, 0x2b, 0xbe, 0x47, 0x22, 0x06, 0xbe, 0xdc, 0x17, 0xe3, 0x3c,
  0xb5, 0x6a, 0x0e, 0xbd, 0x8d, 0x82, 0x01, 0x3b, 0x82, 0x8a, 0xb9, 0x3c,
  0xef, 0xa0, 0xc1, 0x3c, 0x78, 0x42, 0x4c, 0xbe, 0x25, 0x97, 0x84, 0xbe,
  0xae, 0x2a, 0xd1, 0x3e, 0xec, 0x0f, 0x70, 0xbc, 0x63, 0xa5, 0x2c, 0x3d,
  0xda, 0xb6, 0xe8, 0x3e, 0x50, 0x0d, 0x5a, 0xbd, 0x23, 0x91, 0x4d, 0xbd,
  0x93, 0xd2, 0x05, 0xbc, 0x61, 0x34, 0x10, 0xbe, 0x0e, 0x43, 0x72, 0xbd,
  0x0f, 0xf2, 0x27, 0xbc, 0x1d, 0xff, 0xb2, 0x3d, 0xd1, 0xbe, 0x3b, 0x3e,
  0x13, 0x84, 0x6b, 0x3e, 0x31, 0xe2, 0x94, 0x3d, 0x12, 0x2d, 0xce, 0x3d,
  0x88, 0x17, 0xe7, 0xbd, 0x07, 0xd5, 0x3a, 0x3d, 0xa4, 0x9a, 0xee, 0xbd,
  0x73, 0x80, 0xa0, 0x3d, 0x78, 0x5a, 0x23, 0xbe, 0x37, 0x72, 0xae, 0x3d,
  0x18, 0xaa, 0x6a, 0x3d, 0x39, 0xf0, 0x53, 0x3e, 0x79, 0x17, 0x19, 0xbe,
  0xb1, 0x28, 0x80, 0xbd, 0x6d, 0x73, 0xf3, 0x3d, 0xe2, 0x6e, 0x02, 0xbd,
  0xeb, 0x35, 0x4a, 0x3e, 0x8c, 0x21, 0x00, 0xbe, 0x3f, 0x0b, 0x86, 0xbc,
  0xcd, 0xb4, 0x66, 0x3e, 0xe9, 0x62, 0xfc, 0xbd, 0x64, 0x04, 0x1f, 0xbb,
  0xc3, 0xa3, 0xc2, 0xbd, 0xc9, 0x9e, 0x99, 0xbc, 0xd8, 0xa2, 0x97, 0xbd,
  0xe1, 0xe8, 0x51, 0x3e, 0x04, 0xb8, 0xcc, 0x3d, 0x4f, 0x86, 0xe0, 0xba,
  0x23, 0x48, 0xee, 0x3d, 0x8d, 0xef, 0x9d, 0x3d, 0x27, 0xa3, 0x83, 0x3d,
  0x16, 0x5d, 0x98, 0x3e, 0xcf, 0xb9, 0xf1, 0xbd, 0xc7, 0xc5, 0x86, 0x3e,
  0x33, 0xf6, 0xc0, 0xbd, 0x08, 0x45, 0xbf, 0xbe, 0x69, 0xbc, 0x57, 0xbe,
  0x6c, 0xa9, 0xe5, 0x3d, 0xd5, 0x06, 0xac, 0x3a, 0x63, 0x75, 0x38, 0xbc,
  0xeb, 0xdc, 0xe1, 0x3e, 0xa8, 0x0f, 0x66, 0xbe, 0x28, 0x1e, 0x9d, 0xbe,
  0x64, 0x7b, 0x6c, 0xbe, 0x61, 0xe4, 0x28, 0xbe, 0x43, 0x85, 0x3d, 0x3e,
  0xda, 0x1c, 0xde, 0xbd, 0x1d, 0xf5, 0x34, 0x3e, 0x2f, 0xfb, 0xb1, 0x3d,
  0x80, 0xf9, 0x49, 0x3e, 0x19, 0x1b, 0x56, 0xbe, 0xd3, 0xa0, 0x96, 0xbe,
  0xcf, 0x72, 0x6e, 0xbe, 0xf4, 0x0c, 0x1b, 0xbc, 0xb2, 0xce, 0x49, 0x3d,
  0x22, 0x29, 0x38, 0x3e, 0xfe, 0x1a, 0x71, 0x3c, 0xb4, 0xa0, 0x12, 0x3e,
  0xae, 0xfd, 0xc1, 0xbd, 0x32, 0xc2, 0x92, 0xbe, 0x02, 0xd0, 0xd7, 0xbd,
  0xd1, 0xef, 0xa6, 0x3e, 0xfd, 0x13, 0x73, 0xbb, 0x69, 0x4a, 0x13, 0xbd,
  0x27, 0xc5, 0x4b, 0xbc, 0xe7, 0x2d, 0xb7, 0xbe, 0x3c, 0xd8, 0x5f, 0xbe,
  0x6f, 0x90, 0xaa, 0x3d, 0xc7, 0x0f, 0xa1, 0xbe, 0x13, 0x54, 0x7d, 0xbe,
  0x9f, 0x8c, 0xf3, 0xbe, 0xd0, 0xa6, 0x46, 0x3e, 0x4c, 0x27, 0x84, 0xbe,
  0x0f, 0x24, 0x20, 0x3d, 0x6f, 0x5f, 0xdc, 0xbd, 0x6d, 0xdf, 0xea, 0xbd,
  0x3d, 0x8b, 0x1c, 0xbe, 0x2d, 0x05, 0x7f, 0x3d, 0xed, 0xe4, 0x05, 0xbe,
  0x9d, 0x24, 0x90, 0xbc, 0x90, 0x7e, 0xb0, 0x3d, 0xe3, 0xcf, 0x3b, 0x3d,
  0x36, 0x3a, 0x14, 0x3e, 0xe3, 0xf7, 0xe4, 0xbd, 0x78, 0x60, 0x36, 0xbe,
  0x55, 0x2e, 0xc6, 0x3c, 0x1b, 0xd7, 0x31, 0xbe, 0xbf, 0x45, 0x8e, 0x3e,
  0xb5, 0x58, 0x0d, 0x3e, 0xc2, 0x42, 0x68, 0x3e, 0xa1, 0xd1, 0x8c, 0x3e,
  0x42, 0xe0, 0x35, 0xbd, 0x14, 0xa1, 0x32, 0x3e, 0x11, 0xe6, 0x09, 0xbe,
  0x8d, 0xe1, 0xd7, 0x3e, 0xd6, 0x36, 0x76, 0xbe, 0x26, 0x70, 0xe9, 0x3d,
  0x51, 0x95, 0x36, 0xbe, 0xdd, 0xdb, 0x5a, 0x3d, 0x83, 0xe5, 0x81, 0x3d,
  0x63, 0x50, 0x4f, 0x3e, 0xed, 0x19, 0x36, 0xbd, 0xef, 0xa0, 0xce, 0x3e,
  0x32, 0x61, 0x4f, 0x3f, 0xeb, 0x08, 0x10, 0xbd, 0xcb, 0xb9, 0x07, 0xbe,
  0xdd, 0xc7, 0xfd, 0xbd, 0x8d, 0xc7, 0x88, 0x3b, 0xa5, 0x84, 0x36, 0x3d,
  0x75, 0x96, 0x10, 0x3e, 0x13, 0x75, 0xa5, 0xbd, 0xa0, 0x7c, 0x8e, 0xbd,
  0xbb, 0xb0, 0x24, 0xbe, 0x56, 0x2f, 0xb5, 0xbd, 0x0f, 0x8e, 0xfa, 0xbd,
  0x86, 0x94, 0x28, 0xbd, 0x0a, 0x2e, 0x13, 0xbe, 0x7d, 0x87, 0x4f, 0xbe,
  0xf5, 0xbc, 0x6a, 0xbe, 0x96, 0x8f, 0x8b, 0xbe, 0x2f, 0x8c, 0x4d, 0xbe,
  0x9c, 0x05, 0xde, 0xbd, 0xa2, 0xb0, 0x58, 0xbd, 0xab, 0xa1, 0xdb, 0xbd,
  0xdd, 0x2a, 0x51, 0xbe, 0x10, 0x3f, 0x8b, 0xbe, 0x53, 0xfc, 0x5f, 0xbe,
  0x3f, 0x1f, 0x65, 0x3e, 0x99, 0x92, 0x89, 0x3d, 0xc4, 0x2b, 0x14, 0xbe,
  0x01, 0x1a, 0x68, 0xbe, 0x6a, 0xae, 0xc2, 0x3d, 0xd7, 0x56, 0xf4, 0xbc,
  0xd4, 0x14, 0x1a, 0x3d, 0xa8, 0xca, 0xa6, 0x3e, 0xff, 0x85, 0x9e, 0x3b,
  0x39, 0x2d, 0xee, 0x3d, 0x6b, 0xe3, 0x48, 0xbe, 0x74, 0xf2, 0x56, 0xbe,
  0x4f, 0xa5, 0xd9, 0x3c, 0xd2, 0x91, 0x90, 0x3e, 0xd7, 0x84, 0xad, 0x3d,
  0x39, 0x5b, 0xfe, 0x3c, 0x0e, 0xf7, 0x37, 0xbd, 0x25, 0x14, 0x47, 0xbd,
  0x0a, 0x76, 0xfa, 0x3d, 0xdc, 0xc3, 0x32, 0xbe, 0xf6, 0x62, 0xa0, 0xba,
  0x86, 0x40, 0x80, 0xbd, 0xcb, 0x1e, 0xa5, 0x3d, 0x5e, 0x23, 0x89, 0x3d,
  0x70, 0xe1, 0x84, 0xbd, 0xf8, 0x4a, 0x29, 0xbe, 0x4e, 0xd7, 0x7b, 0x3d,
  0x58, 0x3a, 0xb8, 0xbd, 0x20, 0xcf, 0x58, 0xbd, 0x35, 0x59, 0xd3, 0xbd,
  0x60, 0xb2, 0x6e, 0xbd, 0x8f, 0xcd, 0x9a, 0xbd, 0x63, 0xf0, 0x0f, 0x3e,
  0x82, 0xba, 0x03, 0xbe, 0xa9, 0xbd, 0x18, 0xbe, 0x0c, 0x18, 0xe8, 0xbc,
  0x82, 0xcb, 0xfe, 0xbd, 0x9c, 0x22, 0xb7, 0xbd, 0x1d, 0x66, 0xa3, 0xbd,
  0x05, 0xbc, 0xb2, 0xbd, 0xb1, 0xd4, 0x00, 0xbf, 0xe6, 0x89, 0x66, 0xbd,
  0x0a, 0x7c, 0xdd, 0xbd, 0x56, 0x65, 0x0f, 0xbb, 0x8a, 0x66, 0xab, 0xbd,
  0x3d, 0x4e, 0x65, 0xbd, 0xe9, 0xc9, 0xae, 0xbd, 0x0d, 0xb3, 0xc2, 0x3e,
  0x93, 0x2f, 0x7d, 0xbe, 0x63, 0xde, 0x4a, 0x3d, 0xfb, 0x46, 0xdd, 0x3d,
  0x20, 0xba, 0x65, 0xbc, 0x4d, 0x19, 0x8f, 0xbd, 0xc1, 0x64, 0xb6, 0x3d,
  0x76, 0xa5, 0x2e, 0x3f, 0x7d, 0xf9, 0x86, 0x3c, 0x57, 0xd8, 0x16, 0xbe,
  0xaf, 0x95, 0x2a, 0xbd, 0x82, 0xaa, 0x93, 0xbd, 0xe1, 0x7d, 0x4a, 0xbd,
  0x40, 0x41, 0x16, 0xbd, 0x36, 0xe2, 0x1f, 0x3b, 0x7d, 0x62, 0x30, 0xbe,
  0xd1, 0x38, 0x4a, 0xbe, 0x75, 0x85, 0xf2, 0x3e, 0xf1, 0xe9, 0x86, 0x3c,
  0x01, 0xa7, 0x04, 0xbf, 0x4f, 0xc8, 0xdd, 0xbe, 0x0d, 0x36, 0x82, 0x3d,
  0x5e, 0xdd, 0xa3, 0x3b, 0x36, 0x8f, 0x14, 0x3e, 0x6a, 0xb5, 0x46, 0xbe,
  0xe5, 0x77, 0xdc, 0x3e, 0x98, 0x8b, 0x64, 0x3c, 0xb2, 0x63, 0x90, 0xbe,
  0xca, 0xc9, 0x49, 0xbe, 0xb4, 0x51, 0x30, 0xbd, 0x86, 0x9d, 0x16, 0xbe,
  0x49, 0xed, 0xe0, 0xbe, 0x47, 0x5c, 0xb2, 0xbe, 0x9a, 0xe6, 0xf4, 0x3e,
  0xb5, 0x35, 0x21, 0xbe, 0xb0, 0x4c, 0x2f, 0xbd, 0x8b, 0xa6, 0x14, 0xbc,
  0xf6, 0x0b, 0x22, 0xbd, 0x1c, 0xef, 0x15, 0xbe, 0x9b, 0x06, 0x95, 0xbe,
  0xaf, 0x6c, 0x39, 0xbd, 0x6f, 0x9e, 0x06, 0xbe, 0x27, 0x8a, 0x74, 0xbe,
  0xf8, 0x7b, 0xa7, 0x3d, 0x5d, 0x6f, 0x1b, 0x3e, 0xa1, 0xe3, 0x01, 0xbe,
  0x29, 0x37, 0x25, 0xbc, 0xf9, 0x61, 0x1d, 0xbe, 0x6f, 0x65, 0x14, 0x3e,
  0xe0, 0xd4, 0x38, 0xbe, 0x5c, 0xdf, 0x14, 0xbe, 0xf4, 0x14, 0xb8, 0xbd,
  0xa8, 0x90, 0xb1, 0xbc, 0x57, 0xc6, 0x22, 0xbe, 0x09, 0xe1, 0x07, 0xbe,
  0x00, 0x7a, 0x98, 0xbe, 0xd1, 0x4d, 0x8e, 0xbe, 0xc0, 0x10, 0x8c, 0xbe,
  0xb5, 0x51, 0x0c, 0xbe, 0xd5, 0xfd, 0xbf, 0xbd, 0xcb, 0xfa, 0xb7, 0x3d,
  0xe1, 0x9e, 0x1a, 0xbe, 0xd2, 0xb4, 0x15, 0xbe, 0xae, 0x28, 0x80, 0xbe,
  0x30, 0x88, 0x34, 0xbd, 0x64, 0xef, 0x27, 0x3e, 0x22, 0x89, 0x7d, 0x3d,
  0x50, 0xf3, 0x3b, 0xbc, 0xbb, 0x74, 0xe3, 0xbd, 0x80, 0xcf, 0xb4, 0xbd,
  0x90, 0x54, 0x4d, 0xbd, 0xbd, 0xc9, 0x28, 0x3e, 0xf5, 0x0d, 0x8a, 0x3e,
  0xd6, 0xa2, 0xd4, 0xbc, 0x6e, 0xaf, 0x4c, 0x3e, 0xa6, 0x87, 0xd2, 0xbd,
  0xc8, 0x8e, 0xab, 0xbe, 0x18, 0x09, 0xd5, 0x3d, 0x77, 0x28, 0x97, 0x3e,
  0x07, 0x85, 0x21, 0x3f, 0xe2, 0xde, 0x76, 0x3e, 0x0e, 0x14, 0xce, 0x3e,
  0x52, 0x8c, 0x0f, 0xbd, 0x2f, 0x2d, 0x9c, 0xbe, 0x0d, 0x50, 0x1e, 0xbf,
  0x2d, 0x90, 0x70, 0x3e, 0x48, 0x18, 0x08, 0x3f, 0x0f, 0x90, 0x53, 0x3d,
  0xa0, 0xea, 0xef, 0x3e, 0x7b, 0x7e, 0x28, 0xbc, 0x8d, 0xca, 0x14, 0xbe,
  0xea, 0x35, 0x32, 0xbf, 0xec, 0x08, 0xba, 0xbe, 0x8d, 0x31, 0x2b, 0xbd,
  0x29, 0x32, 0x55, 0xbe, 0xd8, 0xc9, 0x15, 0xbd, 0x42, 0x41, 0x62, 0xbe,
  0x24, 0x01, 0x8c, 0x3e, 0x2d, 0x82, 0x63, 0xbe, 0x0d, 0x7d, 0x7f, 0xbe,
  0xad, 0xaa, 0x55, 0xbd, 0xd5, 0xd1, 0x0c, 0xbe, 0x3b, 0x30, 0x7f, 0xbe,
  0x7a, 0xcb, 0x65, 0xbe, 0xe9, 0xea, 0x86, 0xbe, 0x8f, 0x27, 0x45, 0x3e,
  0x29, 0xaf, 0x61, 0xbe, 0x74, 0x93, 0x16, 0x3e, 0x47, 0x85, 0x95, 0x3e,
  0xb3, 0x8d, 0x42, 0xbe, 0xcf, 0x77, 0xab, 0xbe, 0xf3, 0x32, 0x89, 0xbe,
  0x51, 0xda, 0x32, 0xbe, 0xe2, 0xdd, 0xff, 0xff, 0x10, 0x00, 0x00, 0x00,
  0x0a, 0x00, 0x00, 0x00, 0x1c, 0x00, 0x00, 0x00, 0x38, 0x00, 0x00, 0x00,
  0x04, 0x00, 0x00, 0x00, 0x10, 0x00, 0x00, 0x00, 0x04, 0x00, 0x00, 0x00,
  0x01, 0x00, 0x00, 0x00, 0x08, 0x00, 0x00, 0x00, 0x1a, 0x00, 0x00, 0x00,
  0x73, 0x65, 0x71, 0x75, 0x65, 0x6e, 0x74, 0x69, 0x61, 0x6c, 0x2f, 0x63,
  0x6f, 0x6e, 0x76, 0x32, 0x64, 0x5f, 0x31, 0x2f, 0x43, 0x6f, 0x6e, 0x76,
  0x32, 0x44, 0x00, 0x00, 0x58, 0xdd, 0xff, 0xff, 0x62, 0xde, 0xff, 0xff,
  0x04, 0x00, 0x00, 0x00, 0x80, 0x01, 0x00, 0x00, 0x1a, 0xf6, 0xe1, 0xbd,
  0x1f, 0x66, 0xe4, 0xbd, 0x1d, 0x8b, 0x55, 0xbb, 0x08, 0xc5, 0xa4, 0xbe,
  0x17, 0x82, 0x0f, 0xbf, 0x5b, 0x11, 0x83, 0xbe, 0xcd, 0xc2, 0xa6, 0x3e,
  0xb8, 0x6a, 0xa3, 0x3e, 0x24, 0xff, 0xa4, 0x3d, 0x00, 0x92, 0x20, 0x3e,
  0x01, 0x3d, 0x6b, 0x3e, 0x42, 0xb4, 0xc8, 0x3d, 0x30, 0x67, 0x8f, 0x3e,
  0x1a, 0x99, 0x4f, 0x3d, 0x4e, 0x68, 0x40, 0x3e, 0x69, 0x43, 0xb9, 0xbe,
  0x6a, 0x08, 0x2a, 0xbe, 0x6d, 0x63, 0x36, 0xbe, 0x6b, 0x64, 0x1a, 0x3e,
  0x76, 0x20, 0x7e, 0x3e, 0xa3, 0xe2, 0x27, 0xbe, 0xe3, 0x23, 0xdb, 0xbc,
  0xa7, 0x52, 0x45, 0xbe, 0xbc, 0xd6, 0xaa, 0x3d, 0xf4, 0xf3, 0xc0, 0x3e,
  0x13, 0x93, 0x2d, 0x3e, 0x9b, 0x81, 0xc1, 0x3d, 0xd7, 0x95, 0x9c, 0x3e,
  0xac, 0x6a, 0x4f, 0xbe, 0xc3, 0x08, 0x13, 0x3c, 0x78, 0x24, 0x84, 0xbe,
  0x7e, 0x43, 0x2a, 0x3e, 0xe2, 0x39, 0x9b, 0xbe, 0xed, 0x63, 0x7a, 0xbd,
  0xc1, 0x0a, 0x8a, 0x3c, 0x83, 0xc2, 0xfc, 0x3d, 0x38, 0x3a, 0xf8, 0xbc,
  0x00, 0x25, 0x42, 0x3c, 0x54, 0xef, 0x44, 0x3e, 0x38, 0x51, 0x25, 0xbd,
  0x0e, 0x7d, 0x70, 0xbd, 0xd1, 0x90, 0x13, 0x3d, 0x00, 0x98, 0x1c, 0x3e,
  0x75, 0x0c, 0x0e, 0xbe, 0x64, 0x3a, 0x58, 0xbd, 0x0f, 0x36, 0x7b, 0x3e,
  0x5f, 0x65, 0x52, 0x3b, 0xfe, 0xdf, 0xfe, 0xbd, 0xbb, 0xc7, 0x26, 0xbd,
  0x94, 0x23, 0xed, 0xbd, 0x63, 0x5f, 0x9d, 0x3d, 0x2b, 0x49, 0x5e, 0xbd,
  0x78, 0x4c, 0x87, 0xbd, 0xe5, 0xad, 0xb3, 0x3d, 0x7e, 0x23, 0xb2, 0xbc,
  0x16, 0xe8, 0x8e, 0xbd, 0x36, 0x59, 0x6d, 0x3d, 0x41, 0xd5, 0x64, 0xbd,
  0x3f, 0x4e, 0x52, 0x3d, 0xd0, 0x59, 0x4e, 0x3d, 0xef, 0x7d, 0x9d, 0x3c,
  0x90, 0xa5, 0x70, 0x3e, 0xa9, 0xd4, 0x98, 0xbe, 0x52, 0x95, 0x40, 0xbd,
  0x2b, 0xa4, 0x22, 0x3e, 0xcd, 0x67, 0x3a, 0xbe, 0x35, 0xcd, 0x69, 0x3d,
  0x27, 0x31, 0x22, 0xbe, 0x80, 0xe3, 0x65, 0xbc, 0xdc, 0x25, 0x2a, 0x3e,
  0xea, 0x1e, 0x29, 0xbe, 0x94, 0x38, 0x5e, 0x3e, 0x2c, 0x00, 0xa4, 0x3e,
  0xba, 0xc8, 0xa0, 0x3e, 0x74, 0xee, 0x2d, 0xbc, 0x58, 0x2c, 0x14, 0xbc,
  0x75, 0x6b, 0x88, 0x3d, 0x77, 0xcb, 0x43, 0xbe, 0x4b, 0x0b, 0x80, 0xbe,
  0x42, 0x66, 0xcd, 0xbe, 0x62, 0x5e, 0x80, 0x3d, 0xdd, 0x15, 0x3e, 0xbe,
  0x2e, 0x33, 0x1a, 0xbe, 0xf3, 0x8f, 0x1e, 0xbd, 0x5a, 0xbf, 0xc0, 0x3d,
  0x29, 0xfe, 0x35, 0xbd, 0xad, 0x1c, 0x14, 0xbc, 0xaa, 0x15, 0x81, 0x3e,
  0x61, 0xf8, 0x1c, 0x3e, 0xe9, 0xed, 0x99, 0xbe, 0x0e, 0x37, 0xe8, 0x3d,
  0x06, 0xfe, 0xfc, 0x3c, 0x28, 0xd5, 0x96, 0x3e, 0x6a, 0x13, 0xcf, 0xbe,
  0x6c, 0xde, 0x47, 0xbe, 0xcf, 0x33, 0x29, 0x3e, 0xba, 0xdf, 0xff, 0xff,
  0x10, 0x00, 0x00, 0x00, 0x09, 0x00, 0x00, 0x00, 0x1c, 0x00, 0x00, 0x00,
  0x38, 0x00, 0x00, 0x00, 0x04, 0x00, 0x00, 0x00, 0x08, 0x00, 0x00, 0x00,
  0x04, 0x00, 0x00, 0x00, 0x03, 0x00, 0x00, 0x00, 0x01, 0x00, 0x00, 0x00,
  0x18, 0x00, 0x00, 0x00, 0x73, 0x65, 0x71, 0x75, 0x65, 0x6e, 0x74, 0x69,
  0x61, 0x6c, 0x2f, 0x63, 0x6f, 0x6e, 0x76, 0x32, 0x64, 0x2f, 0x43, 0x6f,
  0x6e, 0x76, 0x32, 0x44, 0x00, 0x00, 0x00, 0x00, 0x30, 0xdf, 0xff, 0xff,
  0x3a, 0xe0, 0xff, 0xff, 0x04, 0x00, 0x00, 0x00, 0x00, 0x01, 0x00, 0x00,
  0x78, 0x80, 0x90, 0x3d, 0x07, 0xba, 0x74, 0xbd, 0xa0, 0x6b, 0x85, 0xbd,
  0xa6, 0xcc, 0x73, 0xbc, 0x74, 0x4d, 0x15, 0x3e, 0x88, 0xd6, 0xf3, 0x3e,
  0x90, 0xca, 0xf2, 0x3d, 0x28, 0x8b, 0x63, 0xbd, 0x14, 0x07, 0xb7, 0xbd,
  0xe3, 0xb1, 0x66, 0x3e, 0x01, 0x20, 0x16, 0x3d, 0xfc, 0x2b, 0x78, 0x3e,
  0x19, 0x84, 0x81, 0xbe, 0x71, 0x3e, 0x3d, 0xbe, 0x7f, 0xf9, 0x95, 0x3d,
  0xc1, 0x76, 0x35, 0x3c, 0x88, 0x05, 0x83, 0x3d, 0xb1, 0xaa, 0x26, 0xbe,
  0xaa, 0x24, 0x4b, 0x3e, 0x43, 0x3f, 0x9d, 0xbd, 0x52, 0x3d, 0xa4, 0x3e,
  0x86, 0x27, 0x09, 0x3e, 0xff, 0xed, 0xc9, 0x3d, 0x80, 0x66, 0x14, 0x3b,
  0xd8, 0xaa, 0xfd, 0xbd, 0xc8, 0x8a, 0xb6, 0xbe, 0x7f, 0xcd, 0x7d, 0xbd,
  0xf7, 0x6d, 0x52, 0x3e, 0x44, 0xe0, 0x14, 0xbf, 0xa6, 0xe7, 0x04, 0xbe,
  0xd9, 0xb1, 0x8d, 0xbe, 0x33, 0x10, 0x97, 0x3c, 0x1c, 0x54, 0x8b, 0xbe,
  0xf2, 0xc3, 0xc4, 0xbe, 0x26, 0x06, 0x27, 0xbe, 0x87, 0xcc, 0x4a, 0xbe,
  0x8d, 0x1a, 0x29, 0xbd, 0x3e, 0xa8, 0x49, 0xbe, 0x06, 0x16, 0x06, 0xbf,
  0x67, 0x6b, 0x18, 0xbe, 0xeb, 0x3f, 0x14, 0xbf, 0xcd, 0x3c, 0xe7, 0xbe,
  0xa8, 0x8c, 0x1a, 0xbe, 0xba, 0xd9, 0xf4, 0x3d, 0x72, 0x09, 0x96, 0xbe,
  0x7c, 0x18, 0xdf, 0xbe, 0x03, 0x63, 0xa7, 0xbb, 0x01, 0x1c, 0x0c, 0xbf,
  0x53, 0x4a, 0x02, 0x3e, 0x59, 0x07, 0xa5, 0xbd, 0x28, 0x1b, 0x34, 0x3e,
  0x23, 0x33, 0x8b, 0xbd, 0x2d, 0x23, 0xa2, 0x3e, 0x7d, 0x6a, 0x3d, 0x3e,
  0x5d, 0xaa, 0x22, 0x3e, 0xfd, 0x22, 0xa1, 0xbd, 0xef, 0xb4, 0xf4, 0xbd,
  0xce, 0x5e, 0xfa, 0x3c, 0x57, 0xee, 0xb1, 0xbd, 0xe5, 0x7e, 0x27, 0x3e,
  0x0f, 0x1c, 0xa1, 0xbe, 0x60, 0x17, 0x7b, 0xbe, 0xce, 0x42, 0x08, 0x3c,
  0x4e, 0xb4, 0xbd, 0x3d, 0x12, 0xe1, 0xff, 0xff, 0x10, 0x00, 0x00, 0x00,
  0x08, 0x00, 0x00, 0x00, 0x14, 0x00, 0x00, 0x00, 0x30, 0x00, 0x00, 0x00,
  0x02, 0x00, 0x00, 0x00, 0x04, 0x00, 0x00, 0x00, 0x10, 0x00, 0x00, 0x00,
  0x19, 0x00, 0x00, 0x00, 0x73, 0x65, 0x71, 0x75, 0x65, 0x6e, 0x74, 0x69,
  0x61, 0x6c, 0x2f, 0x64, 0x65, 0x6e, 0x73, 0x65, 0x5f, 0x31, 0x2f, 0x4d,
  0x61, 0x74, 0x4d, 0x75, 0x6c, 0x00, 0x00, 0x00, 0x80, 0xe0, 0xff, 0xff,
  0x8a, 0xe1, 0xff, 0xff, 0x04, 0x00, 0x00, 0x00, 0x00, 0x1c, 0x00, 0x00,
  0xe1, 0x98, 0x02, 0x3e, 0xb8, 0xb2, 0x13, 0xbe, 0xbb, 0xb1, 0xd5, 0x39,
  0x93, 0x67, 0xbb, 0x3e, 0x38, 0x28, 0x22, 0xbe, 0x4e, 0x7b, 0x75, 0xbe,
  0x85, 0x1f, 0x50, 0xbe, 0x19, 0xbd, 0x43, 0x3d, 0x26, 0x6b, 0x63, 0x3e,
  0x79, 0x06, 0x88, 0x3d, 0xe5, 0x5d, 0x08, 0xbf, 0x07, 0x16, 0xef, 0xbd,
  0x5c, 0x46, 0xe4, 0xbe, 0xc9, 0xca, 0x8f, 0xbe, 0xbc, 0x3b, 0xd4, 0xbd,
  0x4f, 0x3a, 0x30, 0xbe, 0xa7, 0x67, 0xe9, 0x3c, 0xf4, 0x1b, 0xfd, 0x3d,
  0x1b, 0x2a, 0xac, 0xbd, 0xa7, 0x4c, 0x42, 0x3f, 0xf7, 0x78, 0x8a, 0xbd,
  0x59, 0xb9, 0x59, 0xbd, 0x39, 0x3c, 0xb7, 0x3e, 0x2a, 0x64, 0x8f, 0x3d,
  0x6c, 0x71, 0x9b, 0x3e, 0x26, 0xa1, 0x86, 0x3d, 0x1e, 0xb6, 0xaa, 0xbe,
  0x4d, 0xc6, 0x7e, 0x3d, 0x5a, 0x84, 0x90, 0x3d, 0xd3, 0xed, 0x89, 0xbe,
  0xa3, 0x00, 0x7d, 0xbe, 0x2d, 0xc3, 0x79, 0xbe, 0x5f, 0x77, 0xcc, 0x3d,
  0xef, 0xbb, 0x93, 0x3e, 0xda, 0xf9, 0x24, 0xbe, 0xab, 0xb0, 0x06, 0x3f,
  0x6e, 0xf8, 0x6a, 0x3d, 0x35, 0xb8, 0x90, 0xbd, 0x53, 0x08, 0xa8, 0x3e,
  0x88, 0xc2, 0x8b, 0x3d, 0x9d, 0x93, 0x12, 0x3f, 0xcb, 0x7b, 0x5a, 0x3d,
  0x3c, 0x09, 0x13, 0xbe, 0x2b, 0x9a, 0x61, 0x3d, 0xae, 0x45, 0x4d, 0x3e,
  0xe7, 0x95, 0x0c, 0xbe, 0xac, 0x99, 0xec, 0xbd, 0x13, 0x06, 0x8d, 0xbe,
  0xa9, 0xcb, 0x8f, 0x3d, 0xff, 0xe3, 0x26, 0x3c, 0x78, 0xa5, 0x47, 0xbd,
  0xf6, 0xa3, 0xf4, 0x3e, 0xd6, 0x01, 0x37, 0x3e, 0x3f, 0xd1, 0x92, 0xbd,
  0x8c, 0x37, 0xeb, 0x3e, 0x8c, 0x64, 0x31, 0x3c, 0x95, 0x6e, 0xd0, 0x3e,
  0xe3, 0x0f, 0x2e, 0x3d, 0x88, 0x22, 0x44, 0x3c, 0x07, 0x82, 0x57, 0x3a,
  0x67, 0xcb, 0x93, 0xbd, 0xf4, 0x51, 0x71, 0xbc, 0x9d, 0x17, 0x19, 0x3d,
  0x81, 0xbf, 0xfa, 0x3d, 0xf7, 0x4c, 0xf6, 0x3d, 0x79, 0x3c, 0xc9, 0xbd,
  0xac, 0xda, 0x95, 0xbb, 0x46, 0x80, 0x05, 0x3f, 0xc3, 0xa8, 0x90, 0x3d,
  0xfe, 0x53, 0x95, 0xbe, 0xa5, 0xe8, 0x4a, 0x3e, 0xda, 0x1e, 0x51, 0x3d,
  0xba, 0x86, 0x06, 0x3e, 0x97, 0x7e, 0xbf, 0x3c, 0xd7, 0x19, 0x0b, 0xbe,
  0x95, 0xeb, 0xa0, 0x3d, 0x61, 0xc6, 0xf6, 0xbd, 0x97, 0x2d, 0x4c, 0xbe,
  0x45, 0xf0, 0x4f, 0xbe, 0x6f, 0x37, 0x03, 0xbe, 0x2e, 0x07, 0x1c, 0x3e,
  0xb0, 0xb8, 0x55, 0xbe, 0x9e, 0xc0, 0xd1, 0x3d, 0xc0, 0x61, 0xca, 0x3e,
  0x2c, 0x04, 0x22, 0x3d, 0x3e, 0x04, 0x04, 0xbf, 0xeb, 0x24, 0x2d, 0x3d,
  0xe1, 0x8c, 0xb3, 0x3c, 0xba, 0x94, 0x56, 0x3e, 0x35, 0x2a, 0x59, 0xbe,
  0xc4, 0x84, 0x6b, 0xbe, 0x20, 0x63, 0x8c, 0x3c, 0x35, 0x56, 0x0d, 0xbf,
  0xa1, 0x79, 0x46, 0xbe, 0xdc, 0xf0, 0xc9, 0xbe, 0xb2, 0xba, 0x0e, 0xbe,
  0x58, 0x7c, 0x42, 0x3e, 0x6e, 0x26, 0xc0, 0xbc, 0x8d, 0x6f, 0x12, 0xbd,
  0xbc, 0x07, 0x36, 0x3e, 0x93, 0xff, 0xab, 0x3c, 0xc4, 0x78, 0x81, 0xbe,
  0xe0, 0x50, 0x24, 0xbe, 0x21, 0xc8, 0x3a, 0x3d, 0xcf, 0xdb, 0x3a, 0x3e,
  0x5c, 0xfb, 0x7f, 0xbd, 0x2b, 0x31, 0xc0, 0x3b, 0x19, 0x2c, 0x3f, 0x3b,
  0x86, 0x4e, 0x44, 0xbe, 0x89, 0x49, 0xd5, 0xbc, 0x89, 0xcf, 0x94, 0xbe,
  0x59, 0x7e, 0x76, 0xbd, 0xfe, 0xc3, 0x4d, 0x3d, 0xbc, 0x65, 0x8f, 0xbe,
  0x80, 0x2d, 0xd0, 0xbe, 0xf0, 0x61, 0x17, 0x3e, 0x25, 0xcd, 0xa6, 0xbe,
  0xe0, 0x62, 0x85, 0x3d, 0xce, 0x5b, 0x9c, 0xbe, 0x2e, 0xe7, 0xe6, 0x3c,
  0xd7, 0x00, 0x2f, 0x3c, 0x29, 0x3b, 0x32, 0xbe, 0xb6, 0x78, 0xd8, 0xbc,
  0xec, 0x4a, 0xed, 0x3d, 0x1c, 0x2e, 0xac, 0xbd, 0x13, 0x4b, 0x06, 0x3e,
  0xda, 0x83, 0xce, 0xbc, 0xd6, 0x77, 0x23, 0x3e, 0x8c, 0xfa, 0x90, 0x3c,
  0x45, 0xc8, 0x09, 0xbd, 0x92, 0xfc, 0x7b, 0xbd, 0xda, 0x8d, 0xc7, 0x3e,
  0xf3, 0x15, 0xdd, 0xbd, 0x7d, 0xca, 0x71, 0x3e, 0x5e, 0xc2, 0xce, 0xbd,
  0x38, 0xa7, 0x37, 0x3d, 0x77, 0x12, 0xe3, 0xbd, 0xf0, 0x4b, 0x63, 0x3e,
  0x0d, 0x4b, 0x86, 0x3c, 0x3f, 0x15, 0x49, 0x3c, 0xbc, 0xf3, 0xfe, 0x3d,
  0xf7, 0x50, 0xf2, 0xbd, 0x30, 0xe5, 0x83, 0x3c, 0xcf, 0x96, 0x33, 0x3c,
  0xa2, 0x2c, 0xed, 0x3d, 0x83, 0xf4, 0xca, 0x3e, 0x5d, 0xe3, 0xb9, 0xbd,
  0x33, 0x9b, 0x4a, 0x3f, 0x3c, 0x5d, 0x80, 0xbd, 0x48, 0xb3, 0x0d, 0x3e,
  0xa5, 0xe2, 0x6a, 0xbd, 0x09, 0x9f, 0x47, 0x3d, 0xb4, 0xdf, 0xcc, 0xbc,
  0x7e, 0x83, 0x01, 0x3f, 0xab, 0xb6, 0x68, 0x3d, 0x45, 0x1d, 0xfc, 0xbc,
  0x57, 0x5e, 0x88, 0x3e, 0x28, 0x6c, 0x78, 0x3d, 0x29, 0x7d, 0xd8, 0x3e,
  0xd7, 0xac, 0x9d, 0x3d, 0xbe, 0x45, 0xe0, 0x3d, 0x63, 0xc5, 0xa8, 0x3e,
  0xa0, 0x62, 0x05, 0xbe, 0xa4, 0x34, 0xdc, 0x3e, 0x52, 0xfd, 0xe6, 0xbc,
  0x69, 0xe9, 0x8d, 0xbd, 0xcb, 0xea, 0x0a, 0xbd, 0xa0, 0x4f, 0x71, 0x3d,
  0x81, 0x8f, 0x0e, 0xbd, 0xde, 0x3d, 0x5a, 0x3e, 0x2b, 0x1d, 0x25, 0x3e,
  0xcb, 0xe3, 0x0c, 0x3e, 0xec, 0x2c, 0x09, 0x3f, 0xa0, 0x44, 0xa1, 0x3e,
  0x96, 0x86, 0x89, 0x3e, 0x35, 0x86, 0xbb, 0x3e, 0xe1, 0x24, 0xb1, 0x3c,
  0xb1, 0x5a, 0xc3, 0xbe, 0x66, 0x2a, 0x8b, 0x3d, 0x00, 0x3e, 0x99, 0x3e,
  0xe4, 0x90, 0xd5, 0xbe, 0xa8, 0x07, 0x01, 0xbf, 0xa7, 0x3a, 0xee, 0xbe,
  0x24, 0xde, 0xd2, 0x3c, 0x8a, 0x3b, 0x16, 0xbe, 0x3e, 0xec, 0x5b, 0xbe,
  0x6d, 0x0d, 0x67, 0x3e, 0xf7, 0x4d, 0x89, 0xbd, 0xd5, 0xc8, 0x0f, 0x3c,
  0x58, 0x5d, 0xaf, 0xbd, 0x16, 0x2a, 0x6e, 0x3d, 0xc7, 0x09, 0xad, 0x3e,
  0xf5, 0x27, 0x75, 0x3d, 0xa9, 0xe0, 0x81, 0xbe, 0x93, 0x45, 0x34, 0x3d,
  0xc6, 0xe9, 0xb6, 0x3e, 0xca, 0x1b, 0x8d, 0xbe, 0x7a, 0x29, 0xd5, 0xbd,
  0xb8, 0xec, 0xdc, 0xbe, 0xee, 0x39, 0xa8, 0x3c, 0x07, 0xf2, 0x1c, 0xbe,
  0x4e, 0x1a, 0x2d, 0xbd, 0xc8, 0xff, 0x20, 0x3e, 0x6f, 0xca, 0xbe, 0x3d,
  0x69, 0x64, 0x04, 0xbd, 0x5e, 0x3d, 0xb6, 0x3d, 0x49, 0xd6, 0x4d, 0x3d,
  0x5c, 0x7e, 0x38, 0x3e, 0x5c, 0xfc, 0x0b, 0xbd, 0x79, 0xe5, 0x95, 0xbe,
  0x6d, 0x8a, 0xb2, 0x3d, 0x17, 0x01, 0x28, 0x3f, 0x40, 0x2b, 0x3c, 0xbd,
  0x1f, 0x5a, 0xf0, 0xbd, 0x6c, 0x4f, 0x22, 0xbd, 0x15, 0x8f, 0x00, 0x3d,
  0x96, 0xc7, 0xd4, 0x3c, 0xa2, 0xc2, 0x90, 0xbd, 0xff, 0xda, 0x84, 0x3b,
  0x0d, 0x0b, 0xeb, 0x3d, 0x95, 0xc1, 0x36, 0xbc, 0x1d, 0x77, 0xb6, 0x3c,
  0xb3, 0xf1, 0xfa, 0x3c, 0xc3, 0x39, 0x02, 0x3d, 0xe5, 0x35, 0xc8, 0x3c,
  0xa8, 0xff, 0x7d, 0xbd, 0xb0, 0xbc, 0x8d, 0x3d, 0xe4, 0x28, 0x3e, 0x3e,
  0xd7, 0xf9, 0xab, 0xbd, 0x2e, 0x40, 0x24, 0xbe, 0xda, 0x05, 0x78, 0xbe,
  0xa0, 0x3e, 0xa7, 0xbe, 0x99, 0x36, 0x4d, 0xbe, 0x2c, 0xcc, 0x01, 0x3e,
  0xc2, 0x89, 0x6a, 0xbd, 0x2b, 0x78, 0x45, 0xbe, 0xc5, 0x2a, 0x17, 0x3d,
  0x16, 0xc6, 0x8a, 0xbd, 0x61, 0xe1, 0x2f, 0xbe, 0x74, 0xb5, 0x04, 0xbd,
  0x61, 0xff, 0x57, 0xbe, 0x20, 0xe8, 0x57, 0x3e, 0xcd, 0xc3, 0x24, 0x3e,
  0xf7, 0x20, 0xee, 0x3d, 0x71, 0x19, 0x4f, 0xbe, 0x63, 0x31, 0x01, 0x3d,
  0xef, 0x46, 0x19, 0x3e, 0x2f, 0xf8, 0xb4, 0xbe, 0x10, 0xaa, 0xa5, 0xbd,
  0x16, 0xd5, 0x8e, 0xbd, 0x6a, 0xe9, 0x68, 0xbb, 0xf9, 0x96, 0xdf, 0xbe,
  0xb9, 0x67, 0x45, 0xbe, 0x00, 0xfb, 0x92, 0x3b, 0xe0, 0x73, 0x94, 0x3c,
  0x2f, 0x93, 0xae, 0x3d, 0x4a, 0xb3, 0x85, 0x3e, 0xd0, 0x15, 0xac, 0xbd,
  0x45, 0xe3, 0xb6, 0x3d, 0x34, 0xd5, 0x5c, 0xbd, 0x10, 0x60, 0x97, 0x3e,
  0x43, 0x30, 0x26, 0xbe, 0xa2, 0x83, 0xf2, 0x3d, 0x17, 0x40, 0xac, 0xbe,
  0x07, 0xe0, 0x41, 0x3d, 0x45, 0x4a, 0xde, 0xbd, 0xd1, 0xf7, 0xa1, 0xbd,
  0xe3, 0x1a, 0xae, 0xbe, 0x82, 0xd5, 0xa9, 0xbd, 0x95, 0xb8, 0x76, 0xbe,
  0x0b, 0xec, 0xf9, 0xbd, 0x1d, 0x14, 0x13, 0x3d, 0x74, 0x09, 0x19, 0x3e,
  0xb9, 0x04, 0x08, 0x3d, 0x7f, 0xe5, 0x0c, 0xbd, 0x74, 0xb1, 0xa9, 0x3c,
  0x56, 0xa9, 0xef, 0xbd, 0x36, 0x19, 0x87, 0xbd, 0x3f, 0xc4, 0x4c, 0xbd,
  0x08, 0x64, 0x1f, 0xbe, 0x8d, 0x19, 0x27, 0x3c, 0x17, 0xe6, 0x8d, 0xbe,
  0x4a, 0xa5, 0xdc, 0x3d, 0xe2, 0x5a, 0x86, 0xbe, 0x02, 0x27, 0x8a, 0xbe,
  0x0b, 0x22, 0x08, 0xbe, 0x71, 0xea, 0x9d, 0xbe, 0x98, 0xd4, 0x2a, 0xbe,
  0xff, 0x9e, 0xc5, 0xbd, 0xa5, 0x33, 0x83, 0x3e, 0x70, 0x7a, 0xaa, 0xbd,
  0x61, 0x72, 0xe0, 0xbd, 0xdd, 0x90, 0x4e, 0xbe, 0xea, 0x05, 0x64, 0x3e,
  0xa3, 0xbe, 0x94, 0x3d, 0x01, 0xc4, 0x6e, 0xbe, 0xce, 0xc8, 0x0e, 0x3e,
  0xf6, 0x02, 0x21, 0xbe, 0xc2, 0xde, 0x67, 0xbe, 0x25, 0xfc, 0xf7, 0xbd,
  0xc5, 0x39, 0x48, 0xbe, 0xf8, 0xc7, 0xa6, 0x3c, 0x2b, 0xa5, 0xae, 0xbd,
  0xeb, 0xf0, 0xb9, 0xbd, 0xf6, 0x10, 0x41, 0xbd, 0x9c, 0x51, 0xf4, 0x3e,
  0xcc, 0xc7, 0x3d, 0xbd, 0xa7, 0x3e, 0x57, 0xbd, 0x51, 0x2f, 0x22, 0x3d,
  0xa6, 0xf1, 0x1a, 0x3e, 0x15, 0xfc, 0xc7, 0x3e, 0x0a, 0xac, 0x8d, 0xbe,
  0x80, 0xcf, 0x19, 0x3e, 0x18, 0xb9, 0x54, 0x3e, 0xca, 0xb7, 0x9c, 0xbd,
  0x27, 0x06, 0x12, 0xbe, 0x4e, 0xd1, 0x93, 0x3d, 0xb1, 0xef, 0x97, 0x3c,
  0xa4, 0x16, 0x58, 0xbd, 0xd5, 0x26, 0x7b, 0xbe, 0xb4, 0x83, 0x81, 0x3e,
  0x40, 0x70, 0x44, 0x3e, 0xf1, 0xbe, 0x20, 0x3e, 0x56, 0x3e, 0x65, 0x3e,
  0x06, 0x74, 0x6c, 0x3d, 0x28, 0x69, 0xee, 0x3e, 0x5a, 0x75, 0x06, 0x3f,
  0x8c, 0xa1, 0x00, 0x3d, 0xd9, 0x2f, 0x17, 0x3e, 0x77, 0xb6, 0x8c, 0x3e,
  0xf8, 0xb6, 0x16, 0xbd, 0x00, 0x2e, 0x7b, 0xbd, 0x27, 0x0a, 0x3d, 0x3d,
  0xbc, 0x25, 0x97, 0x3c, 0xa3, 0xe6, 0x13, 0x3e, 0x39, 0xd6, 0x0e, 0x3c,
  0x37, 0xf3, 0x25, 0x3d, 0x59, 0x43, 0x26, 0xbe, 0x5e, 0xc2, 0x4a, 0xbf,
  0x4d, 0x6d, 0x77, 0xbe, 0x8a, 0x28, 0x82, 0xbe, 0xf3, 0x0f, 0xed, 0xbd,
  0x48, 0xda, 0xde, 0xbe, 0x01, 0xbf, 0x5a, 0xbd, 0x50, 0xd8, 0xdb, 0xbe,
  0xaf, 0x4a, 0x8b, 0xbe, 0xc5, 0x92, 0x23, 0x3c, 0x22, 0x12, 0x66, 0x3d,
  0x73, 0xf5, 0x4a, 0xbc, 0xd7, 0xbf, 0x2c, 0x3e, 0xac, 0xb3, 0xbf, 0x39,
  0x77, 0x71, 0x3a, 0x3e, 0xd0, 0x5c, 0xb3, 0xbe, 0x8f, 0xd6, 0x32, 0xbe,
  0x84, 0x96, 0xef, 0xbe, 0x89, 0x1d, 0xf2, 0x3d, 0x4e, 0xa0, 0xd3, 0xbe,
  0x60, 0x55, 0x5a, 0x3d, 0xd7, 0x99, 0x96, 0xbe, 0x21, 0xfc, 0x93, 0xbd,
  0x8a, 0x37, 0x0d, 0xbe, 0x96, 0xc6, 0x6e, 0x3e, 0xa0, 0x3e, 0x5a, 0x3c,
  0xb6, 0x9a, 0xa4, 0x3b, 0x77, 0xe3, 0x1a, 0x3e, 0x6e, 0x50, 0x1d, 0xbe,
  0x51, 0x64, 0xa8, 0x3e, 0x24, 0xba, 0x89, 0x3e, 0x44, 0x4f, 0x5f, 0xbd,
  0xb2, 0x1e, 0xf6, 0x3d, 0xe8, 0x8b, 0x91, 0xbe, 0x2f, 0x21, 0x3b, 0xbe,
  0x6d, 0xa3, 0x41, 0x3e, 0x74, 0xce, 0xb4, 0x3d, 0x17, 0x1b, 0x83, 0x3e,
  0x82, 0x3b, 0x5b, 0xbd, 0x42, 0xff, 0xd6, 0xbc, 0xbe, 0x6c, 0xcc, 0x3e,
  0x15, 0x03, 0xd2, 0xbd, 0xf7, 0xb5, 0x1b, 0xbd, 0x96, 0x70, 0xce, 0x3e,
  0x2e, 0xeb, 0x82, 0x3e, 0x21, 0x38, 0x9e, 0x3e, 0xcd, 0x12, 0x5f, 0x3e,
  0x8a, 0x09, 0xdd, 0xbd, 0xb6, 0x87, 0x4c, 0x3e, 0xff, 0x74, 0x95, 0xbd,
  0x06, 0xdd, 0x99, 0x3c, 0x24, 0x4a, 0xac, 0x3d, 0x69, 0x6f, 0xe6, 0xbd,
  0xb5, 0xf7, 0xe3, 0x3b, 0x78, 0x12, 0x82, 0xbc, 0x12, 0x27, 0xe5, 0xbe,
  0x76, 0xfe, 0x91, 0x3d, 0xee, 0x4a, 0xad, 0x3e, 0xb0, 0xcd, 0x44, 0x3d,
  0x14, 0xa4, 0xeb, 0x3e, 0x1e, 0x5c, 0x96, 0x3d, 0xdd, 0xe0, 0xb7, 0x3e,
  0x6f, 0x3d, 0x84, 0x3e, 0x55, 0x45, 0x33, 0x3d, 0xa0, 0xab, 0xe8, 0xbe,
  0xf6, 0xc6, 0x20, 0xbe, 0xd2, 0x56, 0xf3, 0x3d, 0x83, 0xcb, 0xb0, 0xbe,
  0x20, 0xec, 0xf5, 0x3c, 0xce, 0x1f, 0x02, 0xbf, 0xed, 0x98, 0x55, 0xbd,
  0x6e, 0x0b, 0x0b, 0xbf, 0x34, 0x63, 0x97, 0x3d, 0x91, 0xb6, 0xc5, 0x3e,
  0xee, 0xa0, 0x33, 0x3e, 0xb1, 0xc0, 0xe2, 0x3d, 0xa3, 0x0f, 0x70, 0x3d,
  0xb5, 0xc5, 0x68, 0x3e, 0x3b, 0xa6, 0x99, 0x3e, 0x2a, 0x0b, 0x61, 0xbd,
  0x65, 0x26, 0x1c, 0xbe, 0x66, 0xa6, 0x0a, 0x3e, 0x19, 0xc4, 0x79, 0xbd,
  0xe6, 0x53, 0xfa, 0xbd, 0x5d, 0x64, 0xd9, 0xbd, 0x99, 0xe1, 0x37, 0xbe,
  0x4a, 0xf1, 0x61, 0xbd, 0xa2, 0xdc, 0x5e, 0xbe, 0xdf, 0xf5, 0x11, 0x3e,
  0x49, 0xc1, 0xc9, 0x3e, 0x46, 0x09, 0xd0, 0x3d, 0xa1, 0x24, 0xba, 0x3c,
  0x5d, 0x33, 0xe3, 0x3d, 0xe3, 0x4e, 0x26, 0x3e, 0x5a, 0x15, 0x97, 0x3e,
  0x71, 0xf9, 0xb6, 0xbd, 0xd2, 0x61, 0x69, 0xbe, 0x45, 0x2a, 0x7b, 0x3e,
  0xd9, 0xde, 0xfb, 0xbd, 0x71, 0xe7, 0x12, 0xbe, 0xab, 0xc3, 0x66, 0xbd,
  0xc8, 0xea, 0xc0, 0xbe, 0xf0, 0x61, 0x13, 0x3c, 0x89, 0xf7, 0xb1, 0xbe,
  0x71, 0x8c, 0x03, 0x3e, 0x15, 0x3d, 0xce, 0xbc, 0xbd, 0x80, 0x6e, 0xbd,
  0x3f, 0x7b, 0x4e, 0x3e, 0xcc, 0xab, 0x0a, 0xbe, 0xb1, 0x30, 0x2f, 0x3e,
  0x98, 0xda, 0xfa, 0xbc, 0x14, 0x52, 0x6e, 0xbd, 0x93, 0x5f, 0x0d, 0xbe,
  0x59, 0x1a, 0xab, 0xbb, 0xf1, 0xf1, 0x57, 0x3e, 0xa6, 0xd9, 0x3e, 0xbe,
  0xec, 0xac, 0x8e, 0xbd, 0x25, 0x4c, 0x4d, 0x3c, 0x60, 0xc5, 0x2c, 0xbe,
  0x46, 0xa8, 0xb3, 0x3c, 0x94, 0x7b, 0x34, 0xbe, 0xa0, 0x8a, 0xfe, 0xbb,
  0x44, 0x2b, 0xc1, 0xbd, 0x1f, 0x45, 0x16, 0x3e, 0x8a, 0xc7, 0xcc, 0x3c,
  0xdb, 0x79, 0x1f, 0xbe, 0x20, 0x91, 0xb1, 0x3c, 0xf5, 0x7a, 0x14, 0xbd,
  0x25, 0x54, 0x25, 0xbe, 0xef, 0x6f, 0xf6, 0xbd, 0x00, 0x92, 0x87, 0xbd,
  0x96, 0x7a, 0x2e, 0xbe, 0x69, 0xb8, 0xaf, 0x3d, 0xcd, 0xe5, 0xc6, 0xbd,
  0x63, 0xb1, 0x1e, 0xbd, 0x13, 0xfd, 0x08, 0xbe, 0x8c, 0xfb, 0x88, 0xbe,
  0x88, 0xf8, 0xe5, 0x3c, 0xe8, 0xe1, 0x3f, 0xbe, 0xdb, 0x43, 0x34, 0xbe,
  0xaa, 0x02, 0xaa, 0x3c, 0xfc, 0x61, 0x18, 0x3e, 0xb9, 0xf7, 0x00, 0xbe,
  0x57, 0x88, 0x2e, 0x3e, 0xc9, 0xf7, 0xa1, 0x38, 0xbe, 0xdf, 0x6e, 0xbd,
  0x42, 0xe0, 0x97, 0xbe, 0x0e, 0x7e, 0x50, 0xbe, 0xc8, 0xd0, 0x5f, 0xbd,
  0x44, 0x77, 0xd4, 0xbd, 0x77, 0x43, 0x7c, 0x3c, 0x0d, 0x8c, 0x4c, 0xbe,
  0xb2, 0x8d, 0x21, 0xbe, 0x50, 0xa8, 0xb8, 0x3c, 0xd0, 0xb0, 0x6a, 0xbe,
  0x5a, 0x19, 0x6e, 0x3c, 0x0f, 0x07, 0x4d, 0xbe, 0x5b, 0x37, 0x34, 0xbd,
  0xc4, 0xff, 0x92, 0x3d, 0x79, 0x47, 0xb3, 0xbc, 0xbb, 0x6c, 0x3a, 0xbe,
  0xd2, 0x56, 0xc0, 0xbd, 0x70, 0xec, 0xf9, 0x3c, 0x54, 0xa6, 0x05, 0xbe,
  0x84, 0xc6, 0xdb, 0xbd, 0xfb, 0x52, 0x1e, 0xbe, 0xbe, 0x50, 0x06, 0xbe,
  0x16, 0xd5, 0x17, 0x3e, 0x7c, 0xc8, 0x48, 0xbe, 0x08, 0xa5, 0xc6, 0x3d,
  0xea, 0x18, 0x81, 0x3d, 0x25, 0xa1, 0x49, 0xbe, 0x36, 0x12, 0xbb, 0xbd,
  0x20, 0x7d, 0xac, 0x3c, 0xd4, 0x2e, 0x61, 0xbe, 0x26, 0xc4, 0x8c, 0xbd,
  0x2b, 0xe7, 0xf6, 0xbd, 0xa4, 0xda, 0x40, 0xbe, 0x2c, 0x66, 0x8b, 0xbd,
  0x0e, 0x8b, 0x85, 0xbe, 0xcc, 0x49, 0x13, 0xbe, 0x75, 0xf4, 0x26, 0xbe,
  0x6d, 0xe0, 0xee, 0xbd, 0x22, 0xf5, 0xe8, 0xbd, 0xd1, 0xb3, 0x1c, 0xbe,
  0x64, 0x8f, 0xdd, 0xbd, 0xa9, 0x2c, 0xac, 0x3c, 0xc9, 0x7c, 0xa0, 0x3d,
  0x7d, 0x40, 0x61, 0xbe, 0xb2, 0x99, 0x9e, 0x3d, 0x37, 0xc5, 0x07, 0x3e,
  0x38, 0x46, 0xf0, 0xbd, 0x81, 0x1e, 0xb3, 0xbd, 0x4b, 0x0c, 0xa6, 0xbd,
  0x1d, 0x29, 0xc6, 0xbd, 0xe1, 0x26, 0xc8, 0xbd, 0x25, 0x8f, 0xc9, 0xbd,
  0xe7, 0xdf, 0x9d, 0x3d, 0x1d, 0xb2, 0xb2, 0xbd, 0xa2, 0x1f, 0x73, 0x3d,
  0xb5, 0x3b, 0x48, 0xbe, 0xfe, 0x34, 0x51, 0x3d, 0x48, 0x9b, 0x1e, 0xbe,
  0x02, 0x52, 0x32, 0x3c, 0xd9, 0x20, 0xf0, 0xbc, 0xe5, 0x4b, 0x98, 0x3d,
  0xad, 0x47, 0x57, 0xbe, 0xfb, 0xec, 0xb7, 0x3b, 0xdd, 0x22, 0x57, 0xbe,
  0x1d, 0xb3, 0xab, 0xbd, 0xee, 0x1b, 0x19, 0xbe, 0x29, 0xf4, 0x86, 0xbe,
  0x3e, 0x60, 0xf8, 0x3d, 0xfd, 0xe2, 0x1e, 0xbe, 0x87, 0xc2, 0x88, 0xbd,
  0x48, 0x33, 0x37, 0xbd, 0xad, 0xf9, 0xcb, 0xbd, 0x2e, 0x67, 0x16, 0xbe,
  0x3f, 0x4b, 0x89, 0xbe, 0x39, 0xe4, 0x52, 0xbd, 0x75, 0x5a, 0x3d, 0xbe,
  0x91, 0x3e, 0xab, 0x3d, 0x1b, 0x32, 0xff, 0xbd, 0x8f, 0x55, 0xa2, 0x3e,
  0xe9, 0xd9, 0x8f, 0xbd, 0xa0, 0x48, 0x38, 0x3d, 0xe2, 0xab, 0x09, 0x3f,
  0xf7, 0xf5, 0xa3, 0xbd, 0x42, 0x59, 0xfa, 0xbd, 0xfa, 0xd8, 0x20, 0xbe,
  0xfe, 0xb3, 0x83, 0xbe, 0xe6, 0x96, 0x2d, 0x3e, 0x8d, 0x22, 0x4a, 0xbe,
  0xb9, 0x51, 0x4e, 0x3c, 0x0e, 0xbc, 0xf8, 0xbd, 0x7b, 0xb1, 0x0a, 0xbe,
  0x91, 0x96, 0x8d, 0xbc, 0x38, 0xeb, 0x37, 0xbe, 0x87, 0x29, 0x10, 0xbe,
  0xed, 0xa7, 0xa7, 0xbd, 0xfc, 0xf0, 0x5a, 0x3d, 0xbc, 0xf5, 0x39, 0x3e,
  0xe9, 0xcd, 0xd2, 0x3f, 0x74, 0xd1, 0x4d, 0x3e, 0x58, 0xb2, 0x9d, 0xbe,
  0x7e, 0x06, 0x6e, 0xbe, 0x7d, 0xc0, 0x22, 0xbe, 0x4c, 0x52, 0xa2, 0xbc,
  0x9d, 0xfd, 0x82, 0xbe, 0xe7, 0x9f, 0xad, 0xbe, 0xcb, 0x65, 0xa7, 0x3d,
  0x34, 0xaa, 0x37, 0x3e, 0xa0, 0x2d, 0xa5, 0xba, 0xb5, 0x25, 0x54, 0xbe,
  0xd8, 0xa1, 0x01, 0x3e, 0x73, 0x5b, 0xae, 0x3e, 0xc4, 0x8a, 0x1c, 0xbe,
  0x5c, 0xe7, 0xb6, 0x3d, 0x04, 0x0f, 0xab, 0x3f, 0x9b, 0x5e, 0xbc, 0xbc,
  0x3e, 0xde, 0x70, 0xbd, 0xfa, 0x9e, 0x08, 0x3e, 0xbf, 0x26, 0xc2, 0xbe,
  0x52, 0x77, 0xde, 0x3d, 0xa4, 0xc2, 0x3a, 0xbb, 0x20, 0xe7, 0x4b, 0xbc,
  0x91, 0x80, 0x93, 0xbd, 0xc9, 0xe9, 0x6c, 0x3e, 0xa5, 0xdd, 0x18, 0x3d,
  0xc3, 0x9a, 0x2b, 0xbe, 0xa8, 0xf6, 0xbb, 0x3d, 0x16, 0x90, 0xa5, 0x3d,
  0xd2, 0x6d, 0xf6, 0xbc, 0x10, 0xe4, 0x2f, 0x3e, 0x97, 0x9f, 0xbe, 0x3f,
  0xda, 0x04, 0x11, 0x3e, 0xde, 0x74, 0x62, 0xbd, 0x6e, 0x01, 0x4d, 0xbe,
  0x7b, 0xbe, 0x77, 0xbe, 0xc5, 0xb4, 0x43, 0x3d, 0x3c, 0xc8, 0x20, 0xbd,
  0x73, 0x9c, 0x8b, 0xbe, 0x91, 0x30, 0x24, 0xbe, 0x38, 0x14, 0xa6, 0x3e,
  0x7e, 0xd2, 0x38, 0x3c, 0x59, 0x45, 0x8c, 0x3d, 0xe6, 0x69, 0x31, 0xbe,
  0x9e, 0xe8, 0xff, 0x3d, 0x49, 0xad, 0x5b, 0xbe, 0x74, 0x32, 0x7d, 0x3d,
  0x07, 0x82, 0xb3, 0x3f, 0xf2, 0xa3, 0xac, 0x3a, 0xce, 0x5d, 0xd5, 0xbc,
  0x9c, 0xd2, 0x5a, 0xbd, 0x36, 0x5e, 0xca, 0xbe, 0x34, 0x33, 0x38, 0x3e,
  0xa9, 0x27, 0xb1, 0xbd, 0xff, 0xc4, 0xe6, 0xbd, 0x79, 0xcd, 0x70, 0x3d,
  0x6e, 0xa6, 0xec, 0x3e, 0x9d, 0xd0, 0x77, 0xbe, 0x11, 0xb0, 0x0e, 0xbe,
  0x4d, 0x1c, 0x7b, 0x3c, 0x11, 0x30, 0x9e, 0x3e, 0xa4, 0xdc, 0x3e, 0xbe,
  0x4a, 0x30, 0xc3, 0x3d, 0xbf, 0x70, 0x3a, 0x3f, 0x99, 0x6c, 0x3d, 0xbd,
  0x6d, 0xc0, 0xca, 0xbb, 0x89, 0x58, 0x0a, 0xbe, 0x80, 0xed, 0xa7, 0xbe,
  0x40, 0xf3, 0x94, 0x3d, 0xfd, 0xa4, 0x96, 0xbd, 0xde, 0x41, 0xc5, 0xbe,
  0x1e, 0x66, 0xe8, 0xbc, 0x7d, 0x46, 0xe0, 0xbc, 0x18, 0x3c, 0x5b, 0xbe,
  0x6c, 0x40, 0x32, 0x3c, 0xb4, 0xef, 0x73, 0xbe, 0x8e, 0xdc, 0x0a, 0xbe,
  0xcf, 0x49, 0x96, 0xbd, 0x38, 0x33, 0xfe, 0x3c, 0x84, 0xe3, 0xa0, 0x3f,
  0x37, 0x65, 0x4a, 0x3e, 0xf8, 0x1e, 0xbb, 0xbe, 0xcd, 0x13, 0xac, 0xbe,
  0xee, 0x99, 0x30, 0xbe, 0x6a, 0x28, 0x79, 0x3e, 0xab, 0x03, 0xc5, 0xbe,
  0x2e, 0x3b, 0xa0, 0xbe, 0x03, 0x6a, 0x9c, 0xbe, 0x9b, 0x54, 0x68, 0xbd,
  0x9c, 0x13, 0xef, 0xbd, 0x22, 0x6d, 0x2f, 0xbe, 0x22, 0x98, 0x0c, 0xbe,
  0x6b, 0x83, 0x47, 0x3e, 0xd4, 0x09, 0x13, 0xbe, 0xae, 0x3b, 0x3a, 0x3d,
  0xdb, 0xb5, 0x85, 0xbd, 0x97, 0xfa, 0x22, 0xbe, 0x7a, 0x7e, 0xf0, 0xbd,
  0x56, 0x7a, 0x9c, 0xbe, 0xf9, 0x19, 0x56, 0x3d, 0xdc, 0xb6, 0x38, 0x3e,
  0xb8, 0x15, 0x92, 0x3d, 0xc2, 0xac, 0x17, 0xbf, 0xd9, 0x18, 0xb5, 0xbd,
  0xc6, 0xd2, 0x01, 0xbf, 0xb8, 0x5f, 0x8d, 0xbe, 0xb9, 0x94, 0x1d, 0xbe,
  0x7f, 0x85, 0x0c, 0xbe, 0x00, 0xae, 0x06, 0xbd, 0xd6, 0xd5, 0x62, 0xbe,
  0xac, 0xf0, 0xc5, 0x3c, 0x55, 0x13, 0x89, 0xbe, 0xe1, 0x0a, 0x52, 0x3d,
  0xc9, 0x26, 0xc9, 0xbd, 0x77, 0xbd, 0x1d, 0x3d, 0xe5, 0x77, 0x49, 0x3d,
  0x6e, 0x6a, 0xbb, 0x3e, 0x0a, 0xed, 0x48, 0x3e, 0xe9, 0xbf, 0x9c, 0xbe,
  0xf0, 0xc0, 0x86, 0xbd, 0x64, 0xaa, 0x0b, 0xbe, 0x5b, 0x0e, 0xe1, 0xbe,
  0x95, 0xef, 0x07, 0xbe, 0x92, 0xfc, 0xb9, 0xbe, 0xa8, 0x62, 0x5b, 0x3e,
  0x7d, 0x5d, 0x8d, 0x3e, 0x5d, 0xf1, 0x72, 0x3c, 0xd4, 0x87, 0xf7, 0xbe,
  0x70, 0x2e, 0x07, 0x3d, 0x0e, 0x9b, 0x9a, 0xbd, 0xb3, 0xaa, 0x1a, 0x3e,
  0x24, 0xca, 0x43, 0x3d, 0x31, 0x33, 0xef, 0x3e, 0x7d, 0xf0, 0x61, 0x3e,
  0xde, 0x17, 0x48, 0x3d, 0x4d, 0x0c, 0x2f, 0x3e, 0x87, 0xb0, 0xf5, 0xbc,
  0xbe, 0xa2, 0x0c, 0xbe, 0x7a, 0xa3, 0x1c, 0x3d, 0x1f, 0x31, 0xf0, 0xbd,
  0xa1, 0x34, 0x01, 0x3e, 0xda, 0xb5, 0x74, 0x3d, 0xca, 0xc3, 0x41, 0xba,
  0x72, 0x8b, 0xf0, 0xbe, 0x78, 0xc1, 0xf4, 0xbc, 0xa3, 0x67, 0x8f, 0xbd,
  0x52, 0xf0, 0x9a, 0x3e, 0xc4, 0xe4, 0xd8, 0x3d, 0xc9, 0xb1, 0x0a, 0x3f,
  0x7d, 0x95, 0xfe, 0x3a, 0x51, 0xa4, 0x30, 0xbe, 0x1b, 0x93, 0x93, 0xbc,
  0x66, 0x5b, 0xd7, 0x3d, 0xb4, 0xaf, 0x1d, 0xbe, 0xb2, 0x36, 0xa3, 0xbd,
  0xe0, 0xdd, 0x63, 0xbe, 0x96, 0x99, 0x37, 0x3e, 0x88, 0xb2, 0xbd, 0xbd,
  0x2c, 0x2a, 0x50, 0xbc, 0xee, 0xcf, 0xbd, 0xbe, 0x7f, 0xfb, 0x97, 0x3a,
  0x63, 0x56, 0x8e, 0xbe, 0x5e, 0xf5, 0x6c, 0x3e, 0x9e, 0x7b, 0xda, 0x3d,
  0x70, 0x98, 0xa6, 0x3e, 0xad, 0x17, 0x6d, 0x3d, 0x38, 0x7b, 0xe6, 0xbd,
  0xfc, 0x71, 0x11, 0x3e, 0x78, 0x5b, 0x3d, 0xbe, 0xd1, 0xf4, 0x8b, 0xbe,
  0x65, 0xbc, 0xa0, 0xbe, 0xba, 0x30, 0x1a, 0xbd, 0x47, 0x09, 0x9b, 0x3e,
  0x56, 0xe6, 0x2c, 0xbe, 0xa4, 0xc2, 0xef, 0xbb, 0x51, 0xa7, 0x92, 0xbe,
  0xf5, 0x3f, 0x33, 0x3d, 0xc6, 0x5a, 0xa2, 0xbe, 0x0f, 0xdd, 0xac, 0xbb,
  0xfe, 0x1b, 0x0f, 0x3d, 0xd4, 0x90, 0x2b, 0x3e, 0xe7, 0x0b, 0x2f, 0xbe,
  0x91, 0x52, 0x5d, 0xbe, 0xad, 0x43, 0xee, 0x3d, 0xc2, 0x8c, 0xb8, 0xbe,
  0x4d, 0x3d, 0x18, 0xbe, 0x2b, 0xa6, 0xba, 0xbe, 0x2a, 0xaf, 0x1c, 0xbd,
  0xa1, 0x9d, 0x8f, 0x3e, 0x1e, 0x43, 0xc3, 0xb9, 0xe5, 0x10, 0xb7, 0xbd,
  0x89, 0xac, 0xf0, 0xbe, 0xf5, 0xe9, 0x1d, 0x3d, 0x01, 0xb4, 0x45, 0xbe,
  0x79, 0x49, 0x52, 0xbe, 0xb4, 0xd9, 0x8b, 0x3b, 0x79, 0x31, 0xb5, 0x3c,
  0xcb, 0xda, 0x16, 0xbd, 0xfe, 0xf8, 0x10, 0xbc, 0x13, 0x43, 0xa6, 0x3c,
  0x0a, 0x3f, 0x3e, 0xbe, 0x33, 0x69, 0xa9, 0xbd, 0xa4, 0x98, 0x65, 0xbe,
  0xe4, 0x6e, 0xcf, 0xbd, 0xd7, 0x46, 0x7f, 0xbe, 0x54, 0xbf, 0x0b, 0x3e,
  0xc6, 0x8b, 0x82, 0x3e, 0x9a, 0x33, 0x31, 0xbd, 0xe1, 0x8b, 0x15, 0x3e,
  0xf2, 0x64, 0xaa, 0x3d, 0x26, 0x87, 0x12, 0x3e, 0xfb, 0x16, 0x5d, 0xbd,
  0x61, 0xbe, 0x48, 0xbc, 0x02, 0xf8, 0xaf, 0x3d, 0x13, 0x98, 0x3c, 0xbc,
  0x06, 0x2b, 0xd0, 0xbd, 0x82, 0x9e, 0x88, 0x3d, 0x61, 0x88, 0x05, 0x3e,
  0x87, 0xc7, 0xf0, 0x3c, 0x40, 0xde, 0x6c, 0xbe, 0x57, 0x46, 0x11, 0xbe,
  0x34, 0x61, 0x04, 0xbd, 0x94, 0x7c, 0x1b, 0xbe, 0x81, 0x29, 0x0b, 0xbe,
  0xc8, 0x78, 0x44, 0xbd, 0xc3, 0xb8, 0x37, 0x3e, 0x8a, 0x96, 0x2f, 0x3d,
  0x16, 0x45, 0x68, 0xbc, 0x12, 0x7b, 0x1c, 0xbc, 0x30, 0x29, 0xa5, 0xbd,
  0x9b, 0x30, 0x74, 0x3d, 0x5a, 0x3f, 0x8e, 0xbb, 0xfa, 0x24, 0xfd, 0x3c,
  0xaa, 0xc3, 0x20, 0x3d, 0xad, 0x75, 0x74, 0xbe, 0x73, 0xbf, 0xe0, 0xbd,
  0x47, 0xbe, 0xa0, 0xbb, 0xef, 0x21, 0xe7, 0xbd, 0xe4, 0x38, 0xbc, 0xbd,
  0x95, 0xaf, 0xab, 0x3d, 0xb5, 0x78, 0x99, 0xbe, 0xc8, 0x14, 0xee, 0xbd,
  0x64, 0x01, 0xa6, 0xbe, 0x07, 0x35, 0xa1, 0xbd, 0x58, 0x91, 0xa6, 0xbe,
  0xb6, 0xac, 0x85, 0xbe, 0x33, 0x4f, 0x32, 0xbd, 0xd2, 0x9b, 0xcb, 0x3b,
  0x87, 0x7c, 0x13, 0xbf, 0x6a, 0x8c, 0xca, 0xbb, 0x27, 0x61, 0x89, 0xbe,
  0xc5, 0xd2, 0x8f, 0x3e, 0xc1, 0x51, 0xda, 0x3a, 0xc5, 0xa1, 0x5b, 0xbe,
  0x76, 0x41, 0x83, 0xbe, 0x53, 0xc4, 0x0e, 0x3e, 0x46, 0xb8, 0xc7, 0xbd,
  0xcb, 0x33, 0xf3, 0x3d, 0x83, 0xb4, 0x05, 0xbe, 0x24, 0x9a, 0x73, 0xbd,
  0xc0, 0x96, 0xb4, 0xbe, 0x92, 0xb4, 0xf2, 0xbe, 0xc1, 0x9a, 0x05, 0xbf,
  0x3c, 0x1e, 0xbf, 0x3d, 0xfb, 0x9c, 0x2c, 0xbf, 0x54, 0x3d, 0xe9, 0xbd,
  0x4b, 0x74, 0xa8, 0xbe, 0x83, 0x59, 0x05, 0xbe, 0x25, 0x31, 0x59, 0x3d,
  0x05, 0xdc, 0x25, 0x3e, 0xa5, 0xb6, 0x99, 0xbe, 0x21, 0x0a, 0x67, 0x3d,
  0xe0, 0xbb, 0x2d, 0x3d, 0x63, 0x6e, 0x0d, 0xbe, 0x90, 0xc2, 0x2c, 0x3d,
  0x38, 0x78, 0x6a, 0xbd, 0x6d, 0x20, 0x41, 0xbe, 0x43, 0xf4, 0x05, 0x3e,
  0x6e, 0xf4, 0x6c, 0xbe, 0x81, 0x58, 0xda, 0x3c, 0x14, 0xb2, 0x5b, 0xbe,
  0x5b, 0xb6, 0x67, 0xbd, 0x22, 0xb5, 0xd0, 0xbe, 0xc3, 0xd8, 0x9a, 0xbd,
  0x43, 0xce, 0x15, 0x3e, 0xce, 0xac, 0xe7, 0xbd, 0x18, 0x64, 0xa5, 0xbe,
  0xc5, 0x0e, 0x1e, 0xbe, 0x92, 0x64, 0xb3, 0xbd, 0xd3, 0xc4, 0x0c, 0xbb,
  0xf6, 0xb0, 0xdb, 0x3d, 0xa0, 0xb2, 0x84, 0xbd, 0x6f, 0x00, 0x31, 0xbe,
  0xb1, 0xe2, 0xd7, 0xbd, 0xff, 0xcc, 0x62, 0xbe, 0xe1, 0xde, 0x87, 0x3d,
  0x01, 0x0b, 0x6a, 0xbd, 0x7c, 0xca, 0xf0, 0xbd, 0x76, 0xa2, 0xd1, 0xbd,
  0x39, 0x71, 0x30, 0xbe, 0x40, 0x5f, 0x9c, 0x3b, 0x23, 0x55, 0x33, 0x3e,
  0xb4, 0xd7, 0x2e, 0xbd, 0x40, 0xa2, 0x8c, 0xbd, 0xac, 0x12, 0x5d, 0xbd,
  0x93, 0xc4, 0x35, 0x3c, 0x12, 0x86, 0xc7, 0xbb, 0xe5, 0xa5, 0x90, 0xbd,
  0xdf, 0x0b, 0x3b, 0xbe, 0x59, 0xea, 0xc6, 0xbd, 0xb7, 0xc0, 0x63, 0xbc,
  0x72, 0x8a, 0xfd, 0x3c, 0x7e, 0x17, 0x04, 0xbe, 0xda, 0x8e, 0x91, 0xbc,
  0xc5, 0x86, 0x82, 0xbc, 0xf3, 0x2b, 0xcd, 0x3d, 0x60, 0x1a, 0x31, 0x3d,
  0x2f, 0xd3, 0x4b, 0xbe, 0xa5, 0x87, 0x29, 0xbf, 0x59, 0x17, 0xa4, 0xbe,
  0x98, 0xce, 0x8a, 0xbe, 0xe2, 0x1e, 0x19, 0xbd, 0x97, 0x02, 0x80, 0xbe,
  0xd3, 0x8b, 0xe2, 0xbc, 0xb8, 0xce, 0x2f, 0xbe, 0xd0, 0x0c, 0x2c, 0xbe,
  0xce, 0xff, 0x0d, 0x3e, 0xe1, 0x13, 0x69, 0x3e, 0x95, 0x07, 0xfc, 0x3a,
  0xd4, 0xcd, 0x97, 0x3e, 0xe8, 0x72, 0xdd, 0xbc, 0xd9, 0x60, 0x74, 0x3e,
  0x86, 0x0f, 0x2d, 0xbe, 0x0a, 0x21, 0x95, 0xb9, 0xc8, 0x14, 0x34, 0x3e,
  0x3c, 0x84, 0x34, 0x3e, 0xe6, 0x4e, 0x23, 0xbe, 0xb3, 0xd9, 0x99, 0x3e,
  0x56, 0x06, 0x6c, 0xbd, 0x3b, 0xba, 0xda, 0xbc, 0xa4, 0xff, 0xaa, 0xbe,
  0x17, 0x0f, 0xae, 0x3e, 0x49, 0x1e, 0x87, 0x3d, 0xed, 0x2e, 0x0b, 0x3d,
  0xdd, 0x7a, 0x25, 0x3e, 0x96, 0x48, 0x9d, 0x3c, 0x57, 0xfc, 0xd4, 0xbc,
  0x18, 0x36, 0x12, 0x3e, 0x89, 0x25, 0xd8, 0x3b, 0x3c, 0x3c, 0x42, 0x3d,
  0x9d, 0x5e, 0x04, 0x3e, 0x73, 0x33, 0xbe, 0xbd, 0x95, 0xcb, 0x9a, 0xbd,
  0xc0, 0xa3, 0x57, 0x3e, 0x48, 0xf1, 0xef, 0xbb, 0xe2, 0x19, 0xb4, 0xbc,
  0xc4, 0x0a, 0xe8, 0xbd, 0xe1, 0x9e, 0x18, 0x3f, 0xce, 0x40, 0x3f, 0x3e,
  0xb1, 0x60, 0x13, 0xbe, 0x19, 0x47, 0x5e, 0x3f, 0x17, 0x52, 0x58, 0x3d,
  0x08, 0xa1, 0x48, 0x3e, 0xa3, 0x4e, 0x24, 0x3e, 0xdb, 0x33, 0xb8, 0xbc,
  0x05, 0x98, 0xd5, 0x3e, 0xb9, 0x18, 0xb0, 0x3d, 0x7e, 0x60, 0x66, 0xbd,
  0xa7, 0xe0, 0x8f, 0x3d, 0xd0, 0x44, 0xc7, 0xbe, 0x5d, 0xaf, 0xa7, 0xbd,
  0xbb, 0xd3, 0xb7, 0xbc, 0x8b, 0x6f, 0xcc, 0xbe, 0x55, 0x24, 0x68, 0x3e,
  0xe5, 0x56, 0x68, 0x3e, 0x33, 0xd0, 0x12, 0xbd, 0x4b, 0x26, 0x24, 0x3f,
  0xbc, 0x81, 0x68, 0x3e, 0x6a, 0xe8, 0xc8, 0x3e, 0xc2, 0x6f, 0xbe, 0x3e,
  0x12, 0xd6, 0xe1, 0xbc, 0x9a, 0xae, 0x9d, 0xbe, 0xd3, 0xbc, 0x10, 0x3e,
  0x95, 0xe7, 0xc4, 0x3f, 0x19, 0x00, 0xd4, 0xbe, 0x51, 0x71, 0x99, 0xbe,
  0xe3, 0x17, 0xf5, 0xbe, 0xa9, 0xe7, 0x43, 0xbc, 0x8f, 0x26, 0x5e, 0xbe,
  0xbc, 0xa2, 0x3f, 0xbe, 0x52, 0xa4, 0x38, 0x3e, 0x77, 0x3d, 0x0e, 0xbe,
  0xb8, 0x85, 0x51, 0x3e, 0x01, 0xe0, 0xe2, 0x3d, 0x59, 0x28, 0x05, 0x3e,
  0x5f, 0xf2, 0x8e, 0x3e, 0xc7, 0xe3, 0x8e, 0xbb, 0x7f, 0x13, 0xbd, 0xbe,
  0x33, 0x20, 0x9d, 0x3e, 0xed, 0xe5, 0x09, 0x3d, 0x0b, 0xdb, 0xa6, 0xbe,
  0xa9, 0x77, 0x28, 0xbd, 0x3b, 0xb8, 0xf9, 0xbe, 0x54, 0xb9, 0x84, 0xbc,
  0x2a, 0xfc, 0xc8, 0xbe, 0x61, 0xd4, 0xa4, 0x3d, 0x1a, 0xe9, 0x48, 0x3e,
  0xb4, 0x6c, 0xf1, 0x3d, 0x83, 0xd5, 0x2a, 0xbc, 0xc2, 0x27, 0xb8, 0x3d,
  0x6a, 0x71, 0x53, 0x3e, 0x94, 0xb4, 0xab, 0x3e, 0x6d, 0x49, 0xe8, 0xbd,
  0xa0, 0x05, 0x27, 0xbe, 0xf2, 0x4f, 0xab, 0x3e, 0x67, 0x57, 0xeb, 0x3d,
  0x7e, 0x8b, 0x9f, 0xbd, 0x0a, 0x19, 0x43, 0xbe, 0xfe, 0x66, 0x7f, 0xbe,
  0xcf, 0x57, 0xd1, 0xbc, 0xed, 0x4b, 0x88, 0xbe, 0xe8, 0xb5, 0x89, 0xbe,
  0x95, 0x41, 0x51, 0xbd, 0xc5, 0x18, 0xcd, 0x3d, 0x20, 0xc7, 0x44, 0x3d,
  0x8c, 0xaa, 0x52, 0x3d, 0x81, 0x02, 0x7e, 0x3e, 0xff, 0x56, 0x40, 0x3e,
  0x0e, 0xa0, 0xa4, 0x3e, 0x06, 0xd9, 0x89, 0xbe, 0xef, 0xa2, 0x25, 0x3d,
  0x98, 0x99, 0x45, 0x3f, 0x31, 0x68, 0x18, 0xbe, 0x2a, 0x7f, 0x85, 0xbe,
  0x40, 0xdb, 0x1c, 0xbe, 0xbc, 0xde, 0x81, 0xbe, 0x2f, 0x94, 0xa3, 0x3d,
  0x4d, 0x9e, 0xbf, 0xbe, 0xdf, 0x32, 0xa2, 0xbd, 0xde, 0x67, 0x0b, 0x3d,
  0xa4, 0xd0, 0xb9, 0x3c, 0xa4, 0x04, 0x9b, 0xbe, 0xaa, 0x11, 0x4b, 0xbe,
  0x2e, 0x82, 0x67, 0x3d, 0x70, 0x05, 0xaa, 0x3d, 0xcc, 0xcb, 0x7b, 0xbd,
  0xa3, 0x37, 0x8b, 0x3d, 0x7f, 0xb4, 0xc3, 0x3f, 0xd6, 0xba, 0x76, 0x3e,
  0x5a, 0x75, 0x0f, 0x3e, 0xa5, 0x3b, 0x91, 0xbe, 0x28, 0xc6, 0x52, 0xbe,
  0x29, 0x2a, 0xaa, 0x3e, 0x3e, 0xd7, 0x7c, 0xbe, 0xcb, 0x6f, 0x98, 0xbe,
  0xe5, 0x86, 0x6e, 0xbc, 0xb6, 0xb1, 0xb5, 0x3e, 0xf2, 0x89, 0xfd, 0xbd,
  0x42, 0x01, 0x5f, 0xbe, 0x11, 0xa3, 0x31, 0xbe, 0x93, 0x40, 0x18, 0x3e,
  0x68, 0x2c, 0xac, 0xbd, 0x9e, 0xf3, 0xe9, 0x3d, 0xba, 0x77, 0x65, 0x3f,
  0xac, 0xe6, 0x9d, 0x3d, 0xbd, 0x80, 0x40, 0xbe, 0xec, 0xd4, 0x4a, 0xbe,
  0x2d, 0x61, 0xb8, 0xbe, 0x22, 0x6e, 0x5b, 0x3e, 0x37, 0x2c, 0x81, 0xbd,
  0x4d, 0xa7, 0x26, 0xbe, 0x4f, 0x8e, 0x1c, 0xbe, 0x1d, 0xdc, 0x24, 0x3e,
  0xfe, 0x80, 0x6e, 0xbe, 0x3c, 0x51, 0xc8, 0x3d, 0xdc, 0x4f, 0x82, 0xbd,
  0x17, 0xb2, 0x94, 0x3e, 0xe3, 0xc7, 0xf7, 0xbd, 0x72, 0x87, 0x92, 0x3e,
  0x5e, 0xfa, 0x95, 0x3f, 0xe8, 0x13, 0x97, 0x3e, 0x69, 0xc9, 0x9a, 0x3c,
  0x1f, 0xea, 0x06, 0xbd, 0xe3, 0x9c, 0x63, 0xbe, 0x96, 0x37, 0x0f, 0x3e,
  0x20, 0xb7, 0x95, 0xbe, 0x6e, 0xe3, 0x7d, 0xbe, 0x3f, 0x2c, 0xbe, 0x3c,
  0x8a, 0x0e, 0x70, 0x3d, 0xc3, 0xe0, 0x31, 0xbe, 0x70, 0x54, 0x8c, 0x3d,
  0xfc, 0x49, 0xbd, 0xbd, 0x04, 0x32, 0xac, 0x3e, 0xe8, 0x49, 0xd5, 0xbd,
  0x05, 0x8a, 0x65, 0x3e, 0x56, 0xa6, 0xb7, 0x3f, 0xd8, 0xa7, 0x53, 0x3e,
  0xd0, 0xb5, 0x6d, 0xbe, 0x0c, 0x3c, 0x0c, 0x3d, 0x13, 0x9b, 0x04, 0xbe,
  0x22, 0x24, 0xbd, 0x3d, 0xe3, 0x98, 0x8c, 0xbe, 0x47, 0x40, 0x90, 0xbe,
  0x31, 0x02, 0x50, 0x3e, 0x1d, 0x1e, 0x97, 0x3d, 0x6d, 0x74, 0xba, 0xbe,
  0x80, 0x11, 0x7d, 0x3d, 0x9f, 0x6b, 0x66, 0xbe, 0xed, 0xe5, 0xc7, 0x3e,
  0x49, 0xb7, 0x1e, 0x3d, 0x31, 0x99, 0x36, 0x3e, 0xd7, 0xeb, 0x90, 0x3f,
  0xba, 0xad, 0x71, 0xbe, 0x8a, 0xc7, 0x7d, 0xbe, 0x75, 0xe6, 0x91, 0xbd,
  0x69, 0x2c, 0xb1, 0xbe, 0xb7, 0x5a, 0x2f, 0x3e, 0xec, 0x65, 0x3a, 0xbe,
  0x83, 0xb3, 0xb9, 0xbc, 0x03, 0x58, 0x87, 0x3e, 0xb0, 0x29, 0x3b, 0xbd,
  0x4f, 0x79, 0x04, 0xbe, 0xaa, 0x17, 0x77, 0xbe, 0xd1, 0xea, 0x59, 0x3d,
  0xcd, 0x14, 0x44, 0xbe, 0x8c, 0xa3, 0x94, 0xbe, 0xb7, 0x03, 0x12, 0xbe,
  0x95, 0x23, 0x78, 0x3f, 0x09, 0xa1, 0x1b, 0x3e, 0x09, 0xbf, 0x95, 0xbe,
  0xbb, 0xcf, 0xb9, 0x3d, 0x58, 0x4b, 0x64, 0xbe, 0x0c, 0xc4, 0xfe, 0xbc,
  0x5b, 0xf5, 0x80, 0xbe, 0x9f, 0x48, 0x0e, 0xbe, 0x6b, 0xe6, 0x7f, 0xbe,
  0x1a, 0x89, 0x85, 0xbe, 0x6a, 0x68, 0x9a, 0xbe, 0x51, 0x17, 0xe0, 0xbb,
  0x20, 0x70, 0x02, 0xbd, 0xd8, 0x14, 0xb2, 0x3e, 0xe2, 0x8c, 0x51, 0xbe,
  0x74, 0x89, 0x0e, 0xbe, 0x69, 0x75, 0x11, 0x3f, 0x3f, 0xcd, 0xd1, 0xbe,
  0x58, 0x84, 0xa4, 0x3d, 0x28, 0x41, 0xa4, 0xbe, 0xb3, 0x30, 0xc4, 0xbe,
  0x5f, 0x77, 0x95, 0xbd, 0xb4, 0xaa, 0x8e, 0xbe, 0x51, 0xde, 0xc9, 0x3d,
  0x87, 0x0c, 0x3b, 0xbe, 0xe0, 0x0b, 0xc5, 0x3c, 0xce, 0x88, 0xb2, 0x3d,
  0x32, 0x62, 0x1c, 0xbd, 0xf5, 0x1d, 0xda, 0x3e, 0x52, 0xa6, 0xfa, 0x3d,
  0xf9, 0xdd, 0x85, 0x3d, 0x83, 0x1f, 0xa8, 0x3e, 0x1c, 0x1e, 0xb4, 0x3f,
  0x05, 0x51, 0x8b, 0xbd, 0x73, 0x24, 0x3d, 0x3e, 0x0b, 0x5c, 0x5d, 0x3d,
  0xd8, 0x3c, 0x8a, 0xbe, 0xdf, 0x84, 0x06, 0x3d, 0xc2, 0xad, 0x92, 0x3e,
  0xe6, 0x21, 0xda, 0x3c, 0x01, 0x5e, 0xa2, 0xbd, 0x1e, 0x9e, 0xd8, 0x3c,
  0xc3, 0x0c, 0x60, 0x3e, 0x1a, 0x53, 0x87, 0x3d, 0xf5, 0xf3, 0x35, 0x3e,
  0x8e, 0xe3, 0x1d, 0x3e, 0x31, 0x00, 0xc5, 0x3d, 0x9c, 0xf6, 0x8d, 0x3e,
  0xf2, 0x01, 0xce, 0x3f, 0x35, 0xa1, 0x91, 0xbd, 0xff, 0x47, 0xf0, 0xbd,
  0xeb, 0x4e, 0x9a, 0xbd, 0x94, 0x54, 0x05, 0xbe, 0xca, 0xfd, 0x1e, 0xbe,
  0x03, 0x47, 0xef, 0x3d, 0x81, 0x56, 0x67, 0xbe, 0x2a, 0xc1, 0x82, 0xbc,
  0x20, 0xb0, 0x56, 0x3f, 0xa9, 0xca, 0x04, 0xbe, 0x45, 0x92, 0x53, 0x3e,
  0x6d, 0xb9, 0x18, 0x3e, 0x17, 0xdd, 0x65, 0x3e, 0x45, 0xbc, 0x27, 0x3e,
  0xa8, 0x92, 0xe2, 0x3e, 0xac, 0xc5, 0x30, 0x40, 0x6d, 0x53, 0xc9, 0xbd,
  0x92, 0x76, 0x93, 0xbd, 0x97, 0xc1, 0xad, 0xbd, 0x68, 0x74, 0x54, 0xbe,
  0x4d, 0x21, 0x81, 0xbe, 0xe6, 0x40, 0xd4, 0x3a, 0xc0, 0x83, 0x59, 0x3e,
  0xdd, 0x54, 0xa1, 0xbd, 0x2b, 0x04, 0x8e, 0x3e, 0xd7, 0xa5, 0x5a, 0xbd,
  0x1c, 0x43, 0x8d, 0x3e, 0x20, 0xcf, 0x0c, 0x3f, 0x9d, 0xde, 0x88, 0x3e,
  0xbc, 0xf7, 0x05, 0xbd, 0x26, 0x1a, 0x76, 0x3d, 0xc8, 0x33, 0x1d, 0x40,
  0xbf, 0x44, 0x3a, 0x3e, 0x9b, 0xc8, 0x3e, 0x3d, 0x66, 0x9d, 0x81, 0x3c,
  0x97, 0x60, 0xa8, 0xba, 0x02, 0xf1, 0x66, 0xbd, 0x82, 0x4b, 0x74, 0xbe,
  0xc4, 0x95, 0x05, 0x3e, 0xcc, 0x1b, 0x64, 0x3e, 0x82, 0xf7, 0x91, 0x3e,
  0xcf, 0xf1, 0x92, 0x3e, 0xff, 0x21, 0x26, 0xbd, 0xbc, 0x43, 0x2c, 0x3f,
  0x64, 0x9c, 0xea, 0x3d, 0xf2, 0xaa, 0x9f, 0xbd, 0x49, 0xc9, 0xc0, 0x3d,
  0x71, 0x21, 0x12, 0x40, 0xea, 0xf0, 0x74, 0x3c, 0xd9, 0x58, 0x9d, 0xbd,
  0xc9, 0x19, 0x2e, 0x3e, 0x52, 0xf8, 0x87, 0xbe, 0x3b, 0xa5, 0x25, 0xbd,
  0xce, 0xc0, 0x1e, 0x3e, 0xf1, 0x5c, 0xef, 0xbc, 0x16, 0xca, 0xdd, 0xbd,
  0x57, 0xff, 0x59, 0xbe, 0x1c, 0xf8, 0x99, 0x3e, 0xc5, 0xf4, 0xfb, 0x3d,
  0x86, 0x01, 0x32, 0x3e, 0x60, 0x54, 0x82, 0xbd, 0x28, 0xf6, 0xfa, 0x3c,
  0xbf, 0x88, 0x30, 0xbe, 0xe2, 0x7e, 0xe9, 0x3f, 0x99, 0xb4, 0xbe, 0xbd,
  0x47, 0xa9, 0xcd, 0x3d, 0xc6, 0x8f, 0xd8, 0xbd, 0x13, 0x8b, 0x3a, 0xbe,
  0x36, 0x16, 0xab, 0x3c, 0x48, 0x5c, 0xe6, 0xbd, 0x02, 0x6f, 0xd2, 0xbd,
  0xd2, 0x9f, 0x84, 0xbe, 0x1e, 0xca, 0x65, 0x3e, 0x53, 0xb3, 0x52, 0xbe,
  0x81, 0x9a, 0x03, 0x3d, 0x67, 0xc1, 0x54, 0xbe, 0x62, 0x0f, 0xef, 0xbd,
  0x84, 0x07, 0x89, 0xbe, 0x5f, 0x82, 0x2e, 0xbe, 0xa4, 0xc2, 0x5b, 0x3d,
  0x9f, 0xf4, 0xb8, 0xbe, 0x09, 0xd0, 0x96, 0xbd, 0xe0, 0xbc, 0x8c, 0xbe,
  0x27, 0x2a, 0x91, 0x3c, 0x21, 0x0c, 0x31, 0xbe, 0x2f, 0xf2, 0x21, 0xbe,
  0x14, 0x59, 0x1d, 0x3c, 0x2a, 0xbd, 0x45, 0x3e, 0x56, 0xcb, 0x4b, 0xbc,
  0x0b, 0x54, 0x66, 0xbd, 0xc6, 0xd7, 0x65, 0xbc, 0xae, 0xc6, 0xd4, 0x3e,
  0xfa, 0xd2, 0x20, 0x3c, 0x76, 0x57, 0x3e, 0x3e, 0xd9, 0x61, 0x14, 0x3e,
  0x8a, 0x51, 0xe6, 0x3c, 0xed, 0x52, 0x52, 0x3e, 0x17, 0x06, 0xb0, 0x3d,
  0xd3, 0x39, 0x2a, 0xbe, 0x8e, 0xdf, 0xdb, 0x3d, 0x92, 0x3b, 0x54, 0xbc,
  0xdb, 0xe8, 0xda, 0x3e, 0x08, 0x8b, 0x8e, 0x3d, 0xbd, 0x04, 0xc5, 0x3c,
  0x52, 0xb4, 0x0b, 0x3e, 0xa4, 0xff, 0x5a, 0x3d, 0xf7, 0x99, 0x36, 0xbe,
  0x94, 0xc9, 0xdb, 0x3d, 0x7f, 0xdd, 0xaf, 0xbd, 0x1c, 0xbc, 0x78, 0xbd,
  0x42, 0xce, 0x29, 0x3e, 0x1f, 0xcf, 0x8e, 0x3d, 0x63, 0x86, 0x96, 0xba,
  0x39, 0x38, 0xba, 0x3b, 0x71, 0x2b, 0x2a, 0x3d, 0xfa, 0xb1, 0x34, 0xbd,
  0xae, 0x17, 0x00, 0xbe, 0xc4, 0x84, 0x88, 0x3e, 0xb4, 0xb5, 0xb5, 0xbd,
  0x7a, 0xab, 0x7a, 0xbe, 0xbc, 0xa7, 0x03, 0x3e, 0xfb, 0xa3, 0xb5, 0x3d,
  0xa4, 0x76, 0xf7, 0x3e, 0x00, 0x9a, 0x36, 0x3e, 0x60, 0xa6, 0x04, 0xbe,
  0x00, 0xf2, 0x31, 0xbd, 0x28, 0xbf, 0x84, 0x3e, 0x09, 0x5f, 0x40, 0xbe,
  0xb8, 0x68, 0xcf, 0xbd, 0xec, 0xc6, 0x12, 0x3d, 0x68, 0x87, 0xfd, 0x3c,
  0x86, 0x9a, 0xe2, 0x3c, 0x0b, 0xb9, 0xa4, 0xbe, 0x84, 0x79, 0x41, 0x3c,
  0x55, 0x95, 0x37, 0x3d, 0x83, 0x63, 0xfe, 0xbc, 0x01, 0xf4, 0xb2, 0x3e,
  0xee, 0xd8, 0xff, 0xbd, 0xa1, 0x64, 0xc7, 0x3e, 0xe1, 0x7c, 0x9c, 0x3c,
  0x46, 0xb1, 0x8c, 0xbc, 0x9e, 0x05, 0x82, 0x3a, 0xd1, 0x38, 0x38, 0xbd,
  0x0e, 0x62, 0xfe, 0x3d, 0x92, 0x21, 0xa1, 0xbd, 0x62, 0xbe, 0x29, 0x3e,
  0x7b, 0x2a, 0xf6, 0xbd, 0xf3, 0x87, 0x02, 0xbd, 0xe5, 0x70, 0x98, 0xbd,
  0xda, 0xf7, 0x28, 0xbd, 0xbc, 0x8a, 0x63, 0xbd, 0x8d, 0xe5, 0xd2, 0xbd,
  0xc8, 0xba, 0x57, 0xbc, 0xb7, 0xd8, 0x44, 0xbd, 0xac, 0x70, 0xa1, 0xba,
  0x54, 0x59, 0x36, 0x3d, 0x9f, 0x15, 0xcb, 0x3d, 0x94, 0x52, 0x30, 0x3d,
  0x3e, 0xad, 0x46, 0x3e, 0x7d, 0xb1, 0xbc, 0x3d, 0x00, 0x09, 0xd7, 0xbd,
  0x82, 0xdb, 0xe5, 0x3d, 0x0e, 0x14, 0x9c, 0xbc, 0xd1, 0x52, 0x64, 0xbd,
  0xeb, 0x3b, 0x68, 0xbe, 0x28, 0x53, 0x09, 0xbe, 0x3b, 0x92, 0x15, 0xbe,
  0x3c, 0x50, 0x02, 0xbe, 0xd5, 0xe4, 0x8c, 0xbd, 0x0f, 0xae, 0x9b, 0xbe,
  0xf1, 0x70, 0x52, 0xbe, 0x9d, 0xfc, 0x82, 0xbe, 0xa5, 0xb4, 0xa6, 0x3e,
  0x53, 0x7c, 0x2e, 0xbe, 0xe0, 0x80, 0x71, 0xbb, 0x91, 0x4b, 0x26, 0x3e,
  0xa4, 0xf4, 0xfa, 0xbd, 0xf6, 0x8c, 0xaa, 0xbc, 0x2c, 0x03, 0x87, 0xbd,
  0xad, 0x4d, 0x46, 0x3c, 0x7b, 0x51, 0xa6, 0x3c, 0xec, 0x3b, 0x89, 0xbd,
  0xd7, 0x6d, 0xe3, 0xbd, 0xbe, 0x8d, 0x21, 0xbe, 0x59, 0x00, 0x12, 0xbc,
  0x61, 0x42, 0xa0, 0xbe, 0xe9, 0xf5, 0x0d, 0xbe, 0x7f, 0xa8, 0xfb, 0xbd,
  0x26, 0x9c, 0x01, 0xbc, 0x2e, 0xb0, 0x87, 0xbe, 0x76, 0xfb, 0x8b, 0xbd,
  0x1b, 0x2c, 0x46, 0x3f, 0xba, 0x5c, 0x99, 0xbd, 0x95, 0xc3, 0xa3, 0xbe,
  0xc6, 0x95, 0x9b, 0xbc, 0xa0, 0xe0, 0x9d, 0xbe, 0x03, 0x90, 0x19, 0x3e,
  0x42, 0xcf, 0x7f, 0xbe, 0x42, 0x01, 0x75, 0xbe, 0xfe, 0xba, 0x59, 0xbe,
  0x1c, 0xb6, 0xa1, 0xbd, 0x35, 0x4f, 0x75, 0xbe, 0x0d, 0x88, 0x7d, 0xbd,
  0x1b, 0xc4, 0xdd, 0xbd, 0x14, 0x46, 0x63, 0x3e, 0x4b, 0x61, 0x0a, 0xbd,
  0x42, 0xd9, 0x96, 0x3d, 0x25, 0xbd, 0xc1, 0x3f, 0x7d, 0x8d, 0x74, 0x3e,
  0x6b, 0xd9, 0x7e, 0xbc, 0x87, 0x8e, 0x1e, 0x3d, 0x52, 0xc9, 0x9d, 0xbe,
  0x12, 0xa5, 0x6c, 0xbd, 0x25, 0x71, 0x32, 0x3d, 0x72, 0x5c, 0xd7, 0xbb,
  0x81, 0x27, 0x7d, 0x3e, 0xc9, 0xa5, 0xbd, 0x3e, 0xd1, 0x37, 0xa2, 0xbe,
  0x6d, 0xd3, 0x38, 0xbe, 0x6d, 0xaf, 0x69, 0xbe, 0x48, 0xc2, 0xcb, 0x3e,
  0x3c, 0xda, 0x37, 0x3d, 0xad, 0xf2, 0x5e, 0x3e, 0x70, 0xc2, 0x7b, 0x3f,
  0x02, 0x34, 0x42, 0x3e, 0xe8, 0xc4, 0x09, 0x3d, 0xcc, 0x64, 0x04, 0x3e,
  0xb2, 0xcf, 0x82, 0xbe, 0x28, 0x88, 0x8f, 0x3d, 0xcc, 0x39, 0x81, 0xbe,
  0x7d, 0xb8, 0xc0, 0xbd, 0x58, 0x5b, 0x8f, 0xbe, 0x90, 0x21, 0xa8, 0x3e,
  0x99, 0x2a, 0x43, 0xbe, 0x31, 0xa3, 0x19, 0x3e, 0x53, 0x2a, 0x76, 0x3d,
  0x0b, 0xd7, 0x3a, 0x3d, 0x4a, 0xe2, 0x1f, 0x3c, 0xa9, 0xc0, 0x4e, 0x3e,
  0x67, 0xb7, 0xaf, 0x3f, 0xa8, 0xa2, 0xe3, 0x3d, 0x0f, 0xc8, 0x89, 0xbe,
  0x4c, 0xb8, 0x57, 0x3c, 0xd8, 0x8d, 0x3c, 0xbe, 0x37, 0x5c, 0xd0, 0x3e,
  0x2d, 0xbb, 0x26, 0xbe, 0x05, 0x89, 0x16, 0xbd, 0x7d, 0x73, 0x4e, 0xbe,
  0x16, 0x0d, 0x2f, 0x3b, 0x76, 0x1a, 0xfc, 0x3c, 0xd2, 0xac, 0x95, 0xbe,
  0xf2, 0x43, 0x08, 0xbd, 0xfb, 0x6b, 0xfa, 0x3d, 0xf3, 0x47, 0x58, 0xbd,
  0xf1, 0xd7, 0xc6, 0x3c, 0x8f, 0x11, 0xa4, 0x3f, 0xb4, 0x8d, 0xad, 0x3d,
  0xee, 0x8a, 0x5c, 0xbe, 0xcf, 0xfe, 0xa5, 0x3c, 0xf8, 0x8e, 0xba, 0xbe,
  0x1c, 0xe7, 0x2c, 0x3e, 0x68, 0x0f, 0x97, 0xbe, 0x9f, 0x60, 0x51, 0xbe,
  0x7b, 0x1c, 0x2c, 0x3e, 0x70, 0x57, 0x02, 0x3e, 0x7f, 0x82, 0xea, 0xbc,
  0x37, 0x6d, 0x6a, 0x3d, 0xab, 0xc4, 0x35, 0xbe, 0x54, 0x03, 0xa3, 0x3e,
  0x63, 0x45, 0x13, 0xbe, 0x44, 0x8d, 0x75, 0x3e, 0xec, 0x08, 0x91, 0x3f,
  0x02, 0xd2, 0x3f, 0xbd, 0xe2, 0xeb, 0x53, 0xbd, 0xbf, 0x15, 0xfb, 0xbd,
  0x44, 0x4c, 0xd2, 0xbd, 0x97, 0x47, 0xc5, 0x3d, 0x06, 0xcf, 0x17, 0x3d,
  0x22, 0x32, 0x64, 0xbe, 0x08, 0xda, 0x2a, 0xbe, 0xcd, 0x3a, 0xff, 0x3d,
  0x79, 0xaf, 0x96, 0xbe, 0xf7, 0x2e, 0x4c, 0xbe, 0x77, 0xce, 0x9d, 0xbc,
  0x08, 0x9d, 0x29, 0x3d, 0x6e, 0xd9, 0x4f, 0xbe, 0x3d, 0x78, 0x88, 0x3c,
  0x2b, 0x3b, 0xdb, 0x3f, 0xaf, 0x5d, 0x28, 0xbe, 0xd2, 0x60, 0x13, 0xbd,
  0x2b, 0x27, 0x4a, 0xbe, 0xe5, 0x94, 0xb0, 0xbe, 0x6f, 0x97, 0x5a, 0x3e,
  0x03, 0x90, 0xab, 0xbe, 0xbc, 0x7d, 0xa1, 0xbe, 0xae, 0x86, 0x2c, 0xbe,
  0xe2, 0xb4, 0x4e, 0x3d, 0x12, 0xe1, 0x87, 0xbe, 0x6e, 0x29, 0x01, 0xbe,
  0xc2, 0x39, 0x67, 0xbd, 0x57, 0x36, 0xa7, 0x3d, 0x54, 0xd5, 0x59, 0xbd,
  0x3d, 0xb1, 0x32, 0x3e, 0xfc, 0xaa, 0x03, 0xbe, 0x20, 0xee, 0xcd, 0x3d,
  0xf1, 0x4f, 0xe2, 0xbe, 0x3b, 0xed, 0x87, 0xbe, 0x57, 0x44, 0xad, 0xbe,
  0x49, 0xc9, 0xbe, 0xbd, 0xd7, 0x58, 0xde, 0xbc, 0x78, 0x44, 0xc9, 0xbe,
  0x7c, 0xde, 0x0b, 0xbf, 0xab, 0xac, 0x2a, 0xbe, 0xe6, 0xa2, 0x2e, 0xbb,
  0xee, 0x37, 0xfa, 0xbe, 0xcb, 0x86, 0xd0, 0xbd, 0x20, 0x57, 0x1d, 0xbc,
  0xf1, 0x26, 0x6a, 0xbc, 0xb2, 0x2a, 0x4e, 0xbd, 0x03, 0x1c, 0x6e, 0xbc,
  0xe6, 0x58, 0x10, 0x3e, 0xca, 0x98, 0xb3, 0xbe, 0x78, 0xda, 0x61, 0x3e,
  0xec, 0xeb, 0xb5, 0xbe, 0x5f, 0xa2, 0xa1, 0x3d, 0xb0, 0x8b, 0x43, 0x3c,
  0x53, 0xed, 0x08, 0xbe, 0x61, 0x74, 0xf6, 0xbe, 0x7b, 0xc9, 0xc0, 0xbd,
  0x45, 0x02, 0x23, 0xbe, 0xcc, 0x3e, 0x90, 0xbe, 0x80, 0xde, 0xa9, 0x39,
  0x52, 0x6e, 0x01, 0x3e, 0x5f, 0x04, 0xc7, 0x3c, 0x01, 0xed, 0x19, 0x3e,
  0x9d, 0xc6, 0x9d, 0xbc, 0xbc, 0xf7, 0xa1, 0x3d, 0x13, 0x59, 0xc6, 0xbe,
  0x7e, 0x26, 0x96, 0x3d, 0x49, 0xf6, 0xb4, 0xbe, 0x3d, 0x36, 0x2c, 0x3e,
  0x78, 0x0f, 0x51, 0xbe, 0x29, 0x35, 0x8c, 0xbe, 0x84, 0x7b, 0x11, 0xbf,
  0xd8, 0x4f, 0xdc, 0xbd, 0xed, 0xe1, 0xb1, 0xbe, 0x0e, 0xa2, 0x89, 0xbe,
  0x8e, 0xf7, 0x01, 0xbe, 0x41, 0x44, 0x80, 0xbc, 0x66, 0xa0, 0xd8, 0xbd,
  0x48, 0xb4, 0x30, 0xbc, 0xfb, 0x2d, 0x97, 0xbd, 0x08, 0x52, 0xfe, 0xbd,
  0xe7, 0x7e, 0x2a, 0xbd, 0x14, 0x65, 0x6e, 0xbe, 0xc1, 0xb6, 0x65, 0xbe,
  0xb6, 0xcf, 0x22, 0xbe, 0x33, 0x49, 0x8b, 0xbc, 0x6d, 0x98, 0xd5, 0xbe,
  0x4c, 0xa3, 0x18, 0xbf, 0x3d, 0x81, 0xc5, 0xbe, 0x0b, 0x4f, 0x8d, 0xbe,
  0x75, 0x9b, 0x05, 0xbf, 0x43, 0x5b, 0xc4, 0x3d, 0x2c, 0xed, 0xd7, 0x3c,
  0xb8, 0xbc, 0xe2, 0x3e, 0x6e, 0x7f, 0x05, 0xbd, 0x62, 0x99, 0xae, 0xbd,
  0x41, 0xd7, 0xa7, 0xbc, 0x9c, 0x96, 0x6f, 0x3e, 0x7a, 0xbe, 0x92, 0x3e,
  0x05, 0x45, 0x0e, 0xbe, 0xd1, 0x27, 0x49, 0x3e, 0xaa, 0x4a, 0x69, 0x3e,
  0x58, 0x4d, 0x96, 0xbe, 0x16, 0x26, 0xa0, 0xbe, 0x2c, 0x87, 0x73, 0x3e,
  0x24, 0x28, 0xbb, 0x3e, 0x7d, 0xfd, 0x0b, 0xbc, 0x79, 0x0b, 0x82, 0x3d,
  0x36, 0x29, 0xfa, 0xbe, 0x01, 0xea, 0x4b, 0x3e, 0x29, 0x24, 0x5a, 0xbe,
  0x9c, 0xfb, 0x09, 0x3e, 0x1f, 0x18, 0x4c, 0x3e, 0x90, 0xa6, 0x01, 0xbc,
  0xca, 0x37, 0x62, 0x3e, 0x6e, 0xf2, 0x42, 0xbc, 0x67, 0x7f, 0x39, 0x3e,
  0xfc, 0x4e, 0x9c, 0x3d, 0x3f, 0x4e, 0x0f, 0xbe, 0x4c, 0xd3, 0x2a, 0xbe,
  0xaa, 0x9e, 0xc5, 0x3d, 0x45, 0x06, 0x30, 0xbc, 0x18, 0xfa, 0x81, 0x3d,
  0x60, 0x31, 0x88, 0xbe, 0xc3, 0x47, 0x7f, 0x3e, 0xae, 0x8c, 0xbd, 0x3d,
  0xba, 0xcf, 0x5d, 0xbe, 0x14, 0x31, 0xbd, 0x3d, 0x9f, 0xcc, 0xad, 0xbd,
  0x5b, 0xda, 0xaf, 0x3e, 0xd1, 0x69, 0xef, 0x3d, 0x28, 0xa3, 0xfe, 0x3d,
  0xb4, 0xac, 0x52, 0x3c, 0xb6, 0x5a, 0x27, 0xbd, 0x82, 0x9d, 0x4c, 0x3b,
  0xba, 0x79, 0xc5, 0x3d, 0x0d, 0x98, 0xfa, 0xbc, 0x6a, 0xcd, 0xcf, 0x3d,
  0xd2, 0xe9, 0x21, 0x3e, 0xd8, 0x6c, 0x5d, 0x3b, 0x2e, 0x18, 0xbd, 0x3e,
  0x25, 0x86, 0x2c, 0xbe, 0x38, 0xd5, 0x84, 0xbd, 0x8d, 0x00, 0xc3, 0x3f,
  0xa3, 0x16, 0x83, 0xbe, 0xe5, 0x78, 0x5f, 0xbe, 0xb4, 0x46, 0xa8, 0xbd,
  0x91, 0x70, 0xe0, 0xbe, 0xcc, 0x4c, 0x83, 0x3e, 0xf0, 0x80, 0xb1, 0xbe,
  0xee, 0x2c, 0x57, 0xbe, 0x40, 0xb8, 0x88, 0xbe, 0x60, 0xac, 0x85, 0x3e,
  0xc8, 0x19, 0x4d, 0xbd, 0x14, 0xb0, 0x9f, 0xbe, 0x51, 0x31, 0x78, 0xbe,
  0xcd, 0xbc, 0x0a, 0x3e, 0x98, 0xb5, 0x4f, 0xbe, 0x52, 0xef, 0x52, 0x3e,
  0x57, 0x9b, 0xed, 0x3f, 0x9d, 0x0e, 0x07, 0x3e, 0x97, 0x45, 0xb3, 0xbe,
  0x39, 0x34, 0x57, 0x3d, 0x7a, 0xbf, 0x67, 0xbe, 0x7f, 0xcc, 0x40, 0x3e,
  0x1c, 0xbd, 0x96, 0xbd, 0x83, 0x87, 0xab, 0xbd, 0xd1, 0xc4, 0x03, 0x3d,
  0x91, 0x31, 0x68, 0x3e, 0x87, 0x3b, 0xcf, 0xbd, 0xfa, 0x53, 0x16, 0xbd,
  0xbc, 0xee, 0x1b, 0xbe, 0x78, 0x63, 0xe1, 0xbc, 0x4a, 0x13, 0x7d, 0xbe,
  0x1d, 0x66, 0x54, 0x3d, 0x7f, 0xbc, 0xdc, 0x3f, 0x06, 0x85, 0xad, 0x3d,
  0x17, 0xbb, 0x4c, 0xbe, 0x11, 0xed, 0x24, 0xbe, 0x29, 0xf2, 0xad, 0xbe,
  0x7e, 0xe8, 0x89, 0x3e, 0x1a, 0x40, 0x64, 0x3c, 0x05, 0xb2, 0x74, 0xbe,
  0x05, 0x6d, 0x00, 0xbe, 0x48, 0x04, 0xe0, 0x3e, 0xe0, 0x65, 0x98, 0xbe,
  0xed, 0x83, 0x1b, 0xbe, 0x10, 0x0b, 0x13, 0xbc, 0xd1, 0xd6, 0xb7, 0x3e,
  0xc8, 0x6c, 0x13, 0xbd, 0x5d, 0x2d, 0x6b, 0x3e, 0x17, 0x98, 0xea, 0x3f,
  0xb2, 0x9e, 0x64, 0x3e, 0x23, 0x24, 0xd3, 0x3d, 0x0a, 0xa3, 0xd6, 0x3d,
  0x3d, 0xd2, 0xdc, 0xbe, 0xa2, 0x5f, 0xa1, 0x3e, 0x3b, 0xb7, 0x1e, 0xbe,
  0x48, 0x7b, 0x86, 0xbe, 0xd0, 0x2c, 0xda, 0xbc, 0xbd, 0xbd, 0x80, 0x3e,
  0x98, 0xc4, 0x00, 0xbd, 0x2a, 0x82, 0x10, 0xbe, 0xd7, 0xe3, 0x31, 0x3e,
  0xb9, 0x35, 0x12, 0x3e, 0xd2, 0x9c, 0xab, 0xbd, 0x7b, 0x33, 0x2e, 0x3e,
  0xc5, 0x90, 0x01, 0x40, 0x90, 0x3c, 0x1b, 0x3e, 0x0e, 0xae, 0x8a, 0xbb,
  0x72, 0x35, 0x4d, 0xbe, 0x3d, 0xcc, 0x68, 0xbe, 0xdc, 0x62, 0x33, 0x3e,
  0x0c, 0x37, 0xc6, 0xbd, 0xbf, 0x69, 0x92, 0x3b, 0x90, 0x43, 0xc5, 0x3a,
  0xaf, 0xf4, 0x81, 0x3d, 0xab, 0x36, 0x00, 0xbe, 0xf9, 0x3e, 0x99, 0xbe,
  0xf6, 0x7d, 0xf9, 0x3d, 0x94, 0xd0, 0x0c, 0x3f, 0xbe, 0xed, 0x35, 0xbe,
  0xf4, 0xc6, 0x3b, 0x3e, 0x73, 0xbb, 0x8e, 0x3f, 0xc3, 0xa1, 0x88, 0xbd,
  0x07, 0xf3, 0xbb, 0xbb, 0x18, 0x8d, 0x7d, 0xbd, 0x29, 0x3c, 0x1c, 0xbe,
  0xfc, 0xe9, 0x0c, 0x3e, 0x78, 0x1b, 0xbd, 0xbd, 0xb0, 0x50, 0x90, 0xbe,
  0x3e, 0x9f, 0xa6, 0xbe, 0x26, 0xb7, 0x9b, 0xbc, 0x70, 0x7b, 0x36, 0xbe,
  0x88, 0x7c, 0xc8, 0x3c, 0x65, 0x4a, 0x69, 0x3d, 0x30, 0x4c, 0x86, 0xbe,
  0xb1, 0x69, 0x3e, 0xbe, 0x6b, 0x21, 0x20, 0xbb, 0x56, 0xc0, 0x86, 0x3f,
  0x26, 0x4d, 0x86, 0x3d, 0x0e, 0xe9, 0xa9, 0xbd, 0x4a, 0xb9, 0xb9, 0xbe,
  0xb3, 0xe4, 0xce, 0xbe, 0xe1, 0xbc, 0x4a, 0x3d, 0x0f, 0x18, 0xb3, 0xbd,
  0xe9, 0x1a, 0xce, 0xbe, 0xde, 0xae, 0x65, 0xbe, 0x99, 0x4c, 0xfb, 0xbd,
  0xa0, 0x6b, 0x8d, 0xbe, 0x76, 0x19, 0x9f, 0xbd, 0xc2, 0xd8, 0x88, 0xbd,
  0x84, 0x66, 0x25, 0x3e, 0xc7, 0x46, 0x32, 0xbe, 0x10, 0x0e, 0x50, 0xbc,
  0x8c, 0x67, 0x5c, 0x3e, 0xe8, 0x1c, 0x0f, 0xbe, 0xd0, 0x86, 0x80, 0xbd,
  0xc4, 0x3f, 0x32, 0xbe, 0x23, 0x40, 0x65, 0x3c, 0x63, 0xdf, 0x9d, 0x3e,
  0x2a, 0xc1, 0xf3, 0x3c, 0xb3, 0x7d, 0xf9, 0xbe, 0x76, 0x0f, 0x22, 0xbe,
  0x8f, 0x9e, 0xf8, 0xbe, 0x89, 0x27, 0xca, 0xbe, 0xd0, 0x7e, 0xda, 0xbd,
  0x36, 0x9e, 0x24, 0xbe, 0xe6, 0x66, 0xa5, 0x3d, 0x12, 0x1b, 0x07, 0xbe,
  0x4f, 0x28, 0x83, 0x3d, 0x1e, 0x70, 0xf6, 0x3e, 0x79, 0x65, 0xce, 0x3a,
  0xc8, 0xa4, 0x3d, 0x3d, 0xaa, 0xc4, 0x77, 0x3e, 0xac, 0xc5, 0x53, 0x3c,
  0x3b, 0xa6, 0x03, 0x3f, 0x30, 0xd2, 0xc8, 0x3d, 0x1a, 0x1e, 0x4c, 0xbe,
  0x08, 0xef, 0x5e, 0xbd, 0xbf, 0x76, 0x95, 0xbe, 0x23, 0x91, 0x93, 0xbe,
  0x98, 0xbf, 0xed, 0xbd, 0x9b, 0xf2, 0xdc, 0xbe, 0x9f, 0x81, 0xc7, 0x3d,
  0x45, 0x98, 0xb0, 0x3e, 0xd7, 0x6a, 0xc5, 0x3c, 0x74, 0xc5, 0xbd, 0x3e,
  0x05, 0xf9, 0xf1, 0x3c, 0x3a, 0x1c, 0x5b, 0x3e, 0xe4, 0xfa, 0xe6, 0x3e,
  0xe9, 0xc6, 0x65, 0x3d, 0x08, 0x01, 0x32, 0x3f, 0xf9, 0xd9, 0x26, 0xbd,
  0xe6, 0xfd, 0xba, 0x3d, 0x26, 0x1e, 0xa2, 0x3d, 0x6f, 0xec, 0x37, 0xbc,
  0x88, 0x0a, 0x46, 0x3d, 0x6d, 0xe5, 0x72, 0xbd, 0xde, 0xfe, 0x19, 0xbf,
  0x9c, 0xa0, 0x34, 0x3e, 0x15, 0x8d, 0x2a, 0x3d, 0x5d, 0xf2, 0xa9, 0x3d,
  0x2e, 0xd4, 0xb5, 0x3d, 0x0f, 0xaf, 0xc5, 0x3d, 0x48, 0x7f, 0x32, 0xbe,
  0x1d, 0xdc, 0xdb, 0x3e, 0x4c, 0x77, 0x3b, 0x3d, 0xcb, 0xe2, 0xf1, 0x3e,
  0x5e, 0xd4, 0xe0, 0x3d, 0x21, 0x2f, 0x00, 0x3e, 0xbd, 0x9c, 0xf0, 0x3c,
  0x31, 0x87, 0xd7, 0xbd, 0x76, 0x47, 0xec, 0xbd, 0x09, 0x72, 0x8f, 0xbd,
  0xea, 0xcc, 0xf1, 0xbe, 0x66, 0x15, 0xe4, 0x3c, 0x69, 0xab, 0xb1, 0xbb,
  0x06, 0x6f, 0x73, 0x3d, 0xb5, 0xb7, 0x9e, 0x3e, 0x23, 0x6e, 0x9c, 0x3d,
  0x68, 0x27, 0x8b, 0xbe, 0x9e, 0xf4, 0xe1, 0x3d, 0x47, 0x16, 0xd5, 0x3b,
  0xcb, 0x2f, 0x97, 0x3e, 0xd2, 0xee, 0xc9, 0xbd, 0x60, 0x96, 0x7c, 0xbb,
  0x2f, 0x67, 0xfb, 0x3c, 0xe0, 0x8d, 0x0f, 0xbe, 0x04, 0x1a, 0xac, 0xbe,
  0x3e, 0xc2, 0x8d, 0xbe, 0xe0, 0x4d, 0xab, 0xbe, 0xc3, 0xe4, 0x33, 0x3e,
  0xe5, 0x0c, 0xfb, 0xbd, 0x80, 0x8a, 0x0a, 0x3e, 0xf7, 0x17, 0xaa, 0x3e,
  0x7c, 0xa3, 0x55, 0x3d, 0x7c, 0x5e, 0xc0, 0xbe, 0xce, 0xde, 0xfe, 0x3a,
  0x1d, 0xc3, 0x70, 0x3d, 0x44, 0x99, 0x6b, 0x3e, 0xbc, 0xe4, 0xb8, 0xbd,
  0x48, 0x61, 0x0f, 0xbe, 0x77, 0x33, 0x96, 0x3d, 0x46, 0xad, 0x03, 0xbf,
  0x24, 0x9a, 0x13, 0xbe, 0xd6, 0xc9, 0x02, 0xbf, 0x68, 0x66, 0x52, 0xbe,
  0x6a, 0x54, 0x2e, 0x3e, 0x37, 0x7f, 0xfb, 0x3b, 0x03, 0x2e, 0xdc, 0xbd,
  0x34, 0xc1, 0xa8, 0xbd, 0x40, 0xae, 0xcd, 0x3a, 0xa5, 0x58, 0x70, 0xbe,
  0xf3, 0x05, 0x8f, 0xbe, 0x9b, 0x2c, 0x3b, 0x3d, 0x7f, 0x00, 0x28, 0x3e,
  0x64, 0xac, 0x9f, 0xbb, 0x76, 0x12, 0x83, 0xbd, 0xe5, 0x62, 0xc3, 0xbb,
  0xe2, 0xce, 0x56, 0xbe, 0x88, 0x79, 0x1d, 0xbe, 0xbc, 0x58, 0xa0, 0xbe,
  0xbd, 0xe4, 0x2d, 0xbe, 0x62, 0xfd, 0xff, 0xff, 0x10, 0x00, 0x00, 0x00,
  0x07, 0x00, 0x00, 0x00, 0x14, 0x00, 0x00, 0x00, 0x2c, 0x00, 0x00, 0x00,
  0x02, 0x00, 0x00, 0x00, 0x10, 0x00, 0x00, 0x00, 0x70, 0x00, 0x00, 0x00,
  0x17, 0x00, 0x00, 0x00, 0x73, 0x65, 0x71, 0x75, 0x65, 0x6e, 0x74, 0x69,
  0x61, 0x6c, 0x2f, 0x64, 0x65, 0x6e, 0x73, 0x65, 0x2f, 0x4d, 0x61, 0x74,
  0x4d, 0x75, 0x6c, 0x00, 0xcc, 0xfc, 0xff, 0xff, 0xd6, 0xfd, 0xff, 0xff,
  0x04, 0x00, 0x00, 0x00, 0x08, 0x00, 0x00, 0x00, 0xff, 0xff, 0xff, 0xff,
  0x70, 0x00, 0x00, 0x00, 0x00, 0x00, 0x0e, 0x00, 0x18, 0x00, 0x08, 0x00,
  0x07, 0x00, 0x0c, 0x00, 0x10, 0x00, 0x14, 0x00, 0x0e, 0x00, 0x00, 0x00,
  0x00, 0x00, 0x00, 0x02, 0x10, 0x00, 0x00, 0x00, 0x06, 0x00, 0x00, 0x00,
  0x10, 0x00, 0x00, 0x00, 0x2c, 0x00, 0x00, 0x00, 0x01, 0x00, 0x00, 0x00,
  0x02, 0x00, 0x00, 0x00, 0x18, 0x00, 0x00, 0x00, 0x73, 0x65, 0x71, 0x75,
  0x65, 0x6e, 0x74, 0x69, 0x61, 0x6c, 0x2f, 0x66, 0x6c, 0x61, 0x74, 0x74,
  0x65, 0x6e, 0x2f, 0x43, 0x6f, 0x6e, 0x73, 0x74, 0x00, 0x00, 0x00, 0x00,
  0x34, 0xfd, 0xff, 0xff, 0x3e, 0xfe, 0xff, 0xff, 0x04, 0x00, 0x00, 0x00,
  0x10, 0x00, 0x00, 0x00, 0xcc, 0xa3, 0xee, 0xbf, 0xec, 0x66, 0xdb, 0x3f,
  0x9d, 0x5b, 0x42, 0xc1, 0x1a, 0x4a, 0xe2, 0xbd, 0x26, 0xfe, 0xff, 0xff,
  0x10, 0x00, 0x00, 0x00, 0x05, 0x00, 0x00, 0x00, 0x10, 0x00, 0x00, 0x00,
  0x44, 0x00, 0x00, 0x00, 0x01, 0x00, 0x00, 0x00, 0x04, 0x00, 0x00, 0x00,
  0x32, 0x00, 0x00, 0x00, 0x73, 0x65, 0x71, 0x75, 0x65, 0x6e, 0x74, 0x69,
  0x61, 0x6c, 0x2f, 0x64, 0x65, 0x6e, 0x73, 0x65, 0x5f, 0x31, 0x2f, 0x42,
  0x69, 0x61, 0x73, 0x41, 0x64, 0x64, 0x2f, 0x52, 0x65, 0x61, 0x64, 0x56,
  0x61, 0x72, 0x69, 0x61, 0x62, 0x6c, 0x65, 0x4f, 0x70, 0x2f, 0x72, 0x65,
  0x73, 0x6f, 0x75, 0x72, 0x63, 0x65, 0x00, 0x00, 0xa8, 0xfd, 0xff, 0xff,
  0xb2, 0xfe, 0xff, 0xff, 0x04, 0x00, 0x00, 0x00, 0x40, 0x00, 0x00, 0x00,
  0x72, 0xfa, 0x84, 0x40, 0x23, 0x84, 0xf4, 0x3f, 0x05, 0x55, 0x04, 0xbf,
  0xab, 0xb9, 0x7c, 0xbf, 0xe1, 0x0d, 0x44, 0xbe, 0xc0, 0x86, 0x6a, 0x3f,
  0x2f, 0xc8, 0x76, 0x40, 0xef, 0xda, 0x87, 0xbf, 0xf0, 0x50, 0xb3, 0xbd,
  0x88, 0xd5, 0x5e, 0x3f, 0x64, 0x33, 0xdf, 0x3e, 0x8a, 0xfa, 0x95, 0xbe,
  0xd1, 0xe2, 0x32, 0x3f, 0xf7, 0xdf, 0x99, 0xbf, 0x0c, 0x02, 0x07, 0x3f,
  0x4f, 0x80, 0xaa, 0x40, 0xca, 0xfe, 0xff, 0xff, 0x10, 0x00, 0x00, 0x00,
  0x04, 0x00, 0x00, 0x00, 0x10, 0x00, 0x00, 0x00, 0x44, 0x00, 0x00, 0x00,
  0x01, 0x00, 0x00, 0x00, 0x10, 0x00, 0x00, 0x00, 0x30, 0x00, 0x00, 0x00,
  0x73, 0x65, 0x71, 0x75, 0x65, 0x6e, 0x74, 0x69, 0x61, 0x6c, 0x2f, 0x64,
  0x65, 0x6e, 0x73, 0x65, 0x2f, 0x42, 0x69, 0x61, 0x73, 0x41, 0x64, 0x64,
  0x2f, 0x52, 0x65, 0x61, 0x64, 0x56, 0x61, 0x72, 0x69, 0x61, 0x62, 0x6c,
  0x65, 0x4f, 0x70, 0x2f, 0x72, 0x65, 0x73, 0x6f, 0x75, 0x72, 0x63, 0x65,
  0x00, 0x00, 0x00, 0x00, 0x4c, 0xfe, 0xff, 0xff, 0x56, 0xff, 0xff, 0xff,
  0x04, 0x00, 0x00, 0x00, 0x40, 0x00, 0x00, 0x00, 0x83, 0x39, 0x1e, 0x40,
  0x41, 0x34, 0x4b, 0xc0, 0x52, 0x53, 0xec, 0x3f, 0xcd, 0xbc, 0x25, 0x40,
  0x20, 0xd2, 0x0d, 0x3e, 0x44, 0xee, 0xc3, 0xbf, 0x3f, 0x35, 0x11, 0xc0,
  0xbf, 0xcb, 0x53, 0x40, 0x60, 0xad, 0x2e, 0x40, 0xb4, 0xeb, 0xbe, 0xbf,
  0xc9, 0x7e, 0xca, 0xbf, 0xa8, 0x3f, 0x0e, 0x40, 0x2e, 0xc3, 0xd7, 0xbf,
  0x1e, 0x5b, 0x0d, 0xc0, 0xc6, 0xc7, 0x39, 0xc0, 0x50, 0x89, 0x1a, 0xc0,
  0x6e, 0xff, 0xff, 0xff, 0x10, 0x00, 0x00, 0x00, 0x03, 0x00, 0x00, 0x00,
  0x10, 0x00, 0x00, 0x00, 0x48, 0x00, 0x00, 0x00, 0x01, 0x00, 0x00, 0x00,
  0x10, 0x00, 0x00, 0x00, 0x33, 0x00, 0x00, 0x00, 0x73, 0x65, 0x71, 0x75,
  0x65, 0x6e, 0x74, 0x69, 0x61, 0x6c, 0x2f, 0x63, 0x6f, 0x6e, 0x76, 0x32,
  0x64, 0x5f, 0x31, 0x2f, 0x42, 0x69, 0x61, 0x73, 0x41, 0x64, 0x64, 0x2f,
  0x52, 0x65, 0x61, 0x64, 0x56, 0x61, 0x72, 0x69, 0x61, 0x62, 0x6c, 0x65,
  0x4f, 0x70, 0x2f, 0x72, 0x65, 0x73, 0x6f, 0x75, 0x72, 0x63, 0x65, 0x00,
  0x04, 0x00, 0x06, 0x00, 0x04, 0x00, 0x00, 0x00, 0x00, 0x00, 0x06, 0x00,
  0x08, 0x00, 0x04, 0x00, 0x06, 0x00, 0x00, 0x00, 0x04, 0x00, 0x00, 0x00,
  0x20, 0x00, 0x00, 0x00, 0x3a, 0xa9, 0xe8, 0xbf, 0xe2, 0x14, 0x80, 0x3f,
  0x04, 0xe0, 0xf9, 0x3f, 0xa4, 0x36, 0x8e, 0x3e, 0x1e, 0xda, 0x88, 0xbf,
  0x4f, 0xe5, 0x8e, 0xbf, 0x3a, 0xc1, 0x39, 0xc0, 0x32, 0xd3, 0xe6, 0xbf,
  0x00, 0x00, 0x0e, 0x00, 0x14, 0x00, 0x04, 0x00, 0x00, 0x00, 0x08, 0x00,
  0x0c, 0x00, 0x10, 0x00, 0x0e, 0x00, 0x00, 0x00, 0x10, 0x00, 0x00, 0x00,
  0x02, 0x00, 0x00, 0x00, 0x10, 0x00, 0x00, 0x00, 0x44, 0x00, 0x00, 0x00,
  0x01, 0x00, 0x00, 0x00, 0x08, 0x00, 0x00, 0x00, 0x31, 0x00, 0x00, 0x00,
  0x73, 0x65, 0x71, 0x75, 0x65, 0x6e, 0x74, 0x69, 0x61, 0x6c, 0x2f, 0x63,
  0x6f, 0x6e, 0x76, 0x32, 0x64, 0x2f, 0x42, 0x69, 0x61, 0x73, 0x41, 0x64,
  0x64, 0x2f, 0x52, 0x65, 0x61, 0x64, 0x56, 0x61, 0x72, 0x69, 0x61, 0x62,
  0x6c, 0x65, 0x4f, 0x70, 0x2f, 0x72, 0x65, 0x73, 0x6f, 0x75, 0x72, 0x63,
  0x65, 0x00, 0x00, 0x00, 0x90, 0xff, 0xff, 0xff, 0x14, 0x00, 0x18, 0x00,
  0x04, 0x00, 0x00, 0x00, 0x08, 0x00, 0x0c, 0x00, 0x10, 0x00, 0x00, 0x00,
  0x00, 0x00, 0x14, 0x00, 0x14, 0x00, 0x00, 0x00, 0x14, 0x00, 0x00, 0x00,
  0x01, 0x00, 0x00, 0x00, 0x20, 0x00, 0x00, 0x00, 0x44, 0x00, 0x00, 0x00,
  0x2c, 0x00, 0x00, 0x00, 0x04, 0x00, 0x00, 0x00, 0x01, 0x00, 0x00, 0x00,
  0x40, 0x00, 0x00, 0x00, 0x03, 0x00, 0x00, 0x00, 0x01, 0x00, 0x00, 0x00,
  0x0c, 0x00, 0x00, 0x00, 0x63, 0x6f, 0x6e, 0x76, 0x32, 0x64, 0x5f, 0x69,
  0x6e, 0x70, 0x75, 0x74, 0x00, 0x00, 0x00, 0x00, 0x04, 0x00, 0x00, 0x00,
  0xff, 0xff, 0xff, 0xff, 0x40, 0x00, 0x00, 0x00, 0x03, 0x00, 0x00, 0x00,
  0x01, 0x00, 0x00, 0x00, 0xfc, 0xff, 0xff, 0xff, 0x04, 0x00, 0x04, 0x00,
  0x04, 0x00, 0x00, 0x00

};

unsigned int model_tflite_len = 13120;// Fill the int in `src/model.cc` here